node {
  name: "train_inputs"
  op: "Placeholder"
  attr {
    key: "dtype"
    value {
      type: DT_INT32
    }
  }
  attr {
    key: "shape"
    value {
      shape {
        dim {
          size: 10
        }
        dim {
          size: 10
        }
      }
    }
  }
}
node {
  name: "train_outputs"
  op: "Placeholder"
  attr {
    key: "dtype"
    value {
      type: DT_INT32
    }
  }
  attr {
    key: "shape"
    value {
      shape {
        dim {
          size: 10
        }
        dim {
          size: 11
        }
      }
    }
  }
}
node {
  name: "split/split_dim"
  op: "Const"
  attr {
    key: "dtype"
    value {
      type: DT_INT32
    }
  }
  attr {
    key: "value"
    value {
      tensor {
        dtype: DT_INT32
        tensor_shape {
        }
        int_val: 1
      }
    }
  }
}
node {
  name: "split"
  op: "Split"
  input: "split/split_dim"
  input: "train_inputs"
  attr {
    key: "T"
    value {
      type: DT_INT32
    }
  }
  attr {
    key: "num_split"
    value {
      i: 10
    }
  }
}
node {
  name: "Squeeze"
  op: "Squeeze"
  input: "split"
  attr {
    key: "T"
    value {
      type: DT_INT32
    }
  }
  attr {
    key: "squeeze_dims"
    value {
      list {
      }
    }
  }
}
node {
  name: "Squeeze_1"
  op: "Squeeze"
  input: "split:1"
  attr {
    key: "T"
    value {
      type: DT_INT32
    }
  }
  attr {
    key: "squeeze_dims"
    value {
      list {
      }
    }
  }
}
node {
  name: "Squeeze_2"
  op: "Squeeze"
  input: "split:2"
  attr {
    key: "T"
    value {
      type: DT_INT32
    }
  }
  attr {
    key: "squeeze_dims"
    value {
      list {
      }
    }
  }
}
node {
  name: "Squeeze_3"
  op: "Squeeze"
  input: "split:3"
  attr {
    key: "T"
    value {
      type: DT_INT32
    }
  }
  attr {
    key: "squeeze_dims"
    value {
      list {
      }
    }
  }
}
node {
  name: "Squeeze_4"
  op: "Squeeze"
  input: "split:4"
  attr {
    key: "T"
    value {
      type: DT_INT32
    }
  }
  attr {
    key: "squeeze_dims"
    value {
      list {
      }
    }
  }
}
node {
  name: "Squeeze_5"
  op: "Squeeze"
  input: "split:5"
  attr {
    key: "T"
    value {
      type: DT_INT32
    }
  }
  attr {
    key: "squeeze_dims"
    value {
      list {
      }
    }
  }
}
node {
  name: "Squeeze_6"
  op: "Squeeze"
  input: "split:6"
  attr {
    key: "T"
    value {
      type: DT_INT32
    }
  }
  attr {
    key: "squeeze_dims"
    value {
      list {
      }
    }
  }
}
node {
  name: "Squeeze_7"
  op: "Squeeze"
  input: "split:7"
  attr {
    key: "T"
    value {
      type: DT_INT32
    }
  }
  attr {
    key: "squeeze_dims"
    value {
      list {
      }
    }
  }
}
node {
  name: "Squeeze_8"
  op: "Squeeze"
  input: "split:8"
  attr {
    key: "T"
    value {
      type: DT_INT32
    }
  }
  attr {
    key: "squeeze_dims"
    value {
      list {
      }
    }
  }
}
node {
  name: "Squeeze_9"
  op: "Squeeze"
  input: "split:9"
  attr {
    key: "T"
    value {
      type: DT_INT32
    }
  }
  attr {
    key: "squeeze_dims"
    value {
      list {
      }
    }
  }
}
node {
  name: "split_1/split_dim"
  op: "Const"
  attr {
    key: "dtype"
    value {
      type: DT_INT32
    }
  }
  attr {
    key: "value"
    value {
      tensor {
        dtype: DT_INT32
        tensor_shape {
        }
        int_val: 1
      }
    }
  }
}
node {
  name: "split_1"
  op: "Split"
  input: "split_1/split_dim"
  input: "train_outputs"
  attr {
    key: "T"
    value {
      type: DT_INT32
    }
  }
  attr {
    key: "num_split"
    value {
      i: 11
    }
  }
}
node {
  name: "Squeeze_10"
  op: "Squeeze"
  input: "split_1"
  attr {
    key: "T"
    value {
      type: DT_INT32
    }
  }
  attr {
    key: "squeeze_dims"
    value {
      list {
      }
    }
  }
}
node {
  name: "embedding_rnn_seq2seq/rnn/embedding_wrapper/embedding"
  op: "Const"
  attr {
    key: "dtype"
    value {
      type: DT_FLOAT
    }
  }
  attr {
    key: "value"
    value {
      tensor {
        dtype: DT_FLOAT
        tensor_shape {
          dim {
            size: 24
          }
          dim {
            size: 128
          }
        }
        tensor_content: "(\374\311\277\340l\367\276$P\271\277\264\3106\277\334\347\236\276\304F\257>\036\352\006?\364\271\343>=\025\271?7f\250\277\200\225]=\330}0>\206Z\252\277*\270\233\277\210O1>\343Gw\277\000\225\331\274\333l\264\277-M\330?\240\216M>s\216\222?-\225\251\277o\330\324?\n\273`\277\227o\232?\274\373\317>\027\271\256?\220\360\\\276@\273\017>\200}\272\274\356\263I?\200ek=$]\322\276\222\304\230\2770\023\213\275\306\257^\277\237+\250?19\205?\020\351\375\275/\336\326\277\334\262\377\2766\3566?\013O\237?`s@\275`\320\342\275@+\335\275\\DQ\277\032\3141?a\277\322?\327\352\315?\270xP>KG\331?\374,\323\276\225k\225?@\177r=\240\014+>\225\325\221?}\222\311\277\006\340&?7\t\266?\0358\223\277@\033\302\275\032\314\'\277\230\010A>LE\203\276\367\215\325\277\253\270\334?\270\350H\276\200\342\223\277\013\375\250?\365\214\207?\366^[?\346w6?\020\217p\276\000j\327\276\305\260\301?\260\335\357\276Tp\316\276\220R\323\277dP\271\276\347\245\203?\306[\002?\327\305}\277\344;\264\276t\312\247\277m.\207?J\314L?\0020\022?#\222h\277J\303\211\277m\201\252?x\013*\277\000X\204\272\271K\270\277\016\344\271\277\356\313t?\202\221u?\362\035\033?&Tz\277\214\227\234>\243\204\275\277%\316\325\277\254m\374\276gW\320?n\271|\2770\350`\276D\356\220\276?\037\312?\3508\200\277`\251q>2\210\223\277\354d\356\276\250\3428\276\260E\t>P\2770\277\001\221\327\277\206h\034?@\264\242\276[\242\315\277\004\025\377\276\024x0\277X\030\333\276$s\320>\010.\\>\260Do\276@\276\323<\277nP\277\373\230\271?2\354l\277\\]\217\277.\246B?\247:\330?\364\002\262>\256\0364?=:\230?`%\031\275\2668\302\277`\021A= :\376\276\340t\344=\2431g\277p\243\224\277\000|\"\2736\022\240\277\361\013\232?@aX\276\221\014\235?\200L\200\2760\210\347\276R\rm?\032\231,\277\210,\024\277r\241b?\304_\200\276\312\314\020?\345+\307?`\242\255\276\337\371\245? \264\350\275\014\313\214>d\273\360>\000+\033< \373\272\276+t\263?*nf?\340Pn=\376\0065?\262\023_?O|\213?\200f\004\277@#\364\274.\360$?\365\227\265?`\215*\277\276i`?,w\247\276\000g\321<\270\306`>R[\272\2778\352_>E,\274?\302\205\022?X\207F>T\001\325\277\320\212\217\277d\303\230\277\206\272M\277\236l\312\277n\347f?\206\003i?\02060\276\203~\247?^\251\025?:\205\020?\302|a?V\301\n?]\241\243\277*$(?\262\357\026?x\255G\276\014E\213\277\262\271\270\277Y\022\312\277\273R\236?nb\260\277\377\\\303?f^\227\277\316\'\024?q\306v\277\271\001\311?\363p\273?@-~>O\314\323\277\372\027]?\000\250\227<\200\366\326\276\023\302\320?=W\224?>\204%?\035\002\251\277*\304Z?{g\273?\255\023\253\277\227\035\277?\317\341\217?C\360\252\277}a\267?\022xU\277T\003\261>\246$S?\240\374\367\275\3000A\276\360\255N\276@s\032\276\3356\213?\200\014d\275:\304\215\277\220:\211=\263\265\220?\237x\310?\377\304\231?\004\325\300>xm/>\010\375\313\277p\320\255\276>\264G?\2675\250?{?\246?\304\247\254\276D\364\362>\215\326\217?\352/i?\255\272\223?\020\226\331\277\033\217\333?\254O\206\277\375$\030?\'jW?vCE?y\353\335\277\242P\211>C\332\207?\325g\226\277\330\275_?\031\034{?\215\261\226\277\036\024r\2770\237\207?\003\222\320\276\356\335\035?!\276\022?\265A\225\2756B}\276\255e\332>\006K\241?\231\036\315\277\004\216<\277_s\215\277\214\201\213\277\223.\323?\\\025\t?EW\313\277\211\317\215\277\343\252u?\027z\253\2773uE\277 X\233\277\252m\220?U\211\251?\272\312\347\275\265\2106\277y\251\313<\026,\017?\215\354J\277\\=2\277\207\212\262?x\002\267\276a\210\313>&\356\330\277t\023,?\363!\263?\365-.>\270\321\244?\207<\335\277\037\332]?\373So\277\035`\271?\324f\311?o\272\325?\342\031\205?\331\340\323\277Q\234\323\276\307\357\222?=]N\277\215\217D\276]\336\004?\362\003-?xR\232?CI2\277^\260i>a+F\276\321\276\355=\022*\304\277\033b\253>C\345\273\277U\357\333?>\257\210?c\371~\277\301\322\264\277\320\233[?\236v\302\276\237\t\332=\361\3174?\016\304\231?\227\\\003\277\340\032\304\277\244\254\234\277\355\365\036\274\223\240\201>\004\t\303?\245\357\202>i\334\231\277\236i\202\277\0343\231\277\203\333\242?\355RU\2773\245l>\245\014e\277k\3146\277\"\352\250\277U\360\020?\252\303\214\277\252\261\371\276x\177\310<\005\rR>\033\254\334\27716\r\277\367\214\247>\264\254\306\277Q\001\245=P\242\232\276\024jT\276\271,\250\275\312\312#?\223\033\005\274\317\337\027?\006\377\306?z\256\253?\237\224\234>\037\273\263?\036\366\232\272m\n ?\363\014W\277\304\3457\277\367\234\377\276S\"\254?\364\206\265?-\301\321?\241\357\263\277{tt>\215\201P?\320\001\\\277\316\200\017\277\233\365\212?&&\020?\306\362\036?\022\274\232\277`\243?\276?\321\262?\251\201\214\277\307\367\217?{\225\230\277\010\304\204\276#D\200\277\234\207\221>z\236\206\277\036\315Z?KS\325?<\017\324\277\310<\002\276\023{\313?T}\375>z<b\277\000\223\354<\325\327\305?\3201\331\276\346\244z?\306{F?\364\253\227\277H\337\"\277\001\251\311\277T\316\265>\r\273\266?\334\203\320>\354\257\253\276 \266^>\375d\313?\353*\277?`\216s>\000J1>\310M\271\276\317\026\177\277}F\224\277\330\362\303\277z\261N\277\364\352\320>vE\244\277\274\254\217>a\256\272?\366\202d\277\360_\226\277\332\304\035?\301\352\222?\370\312\237\277\013\023\273\277\010\3065>\000\253=>:c2\277\006[\037?\342#j?jlS?\342\020\230\277H\022\343\276\344\"\235\277\264r\242\276q\266\247?YA\254?`\245H>\335\303\310?H`z>6\377w?\356-/?F\013\310\277xT\214\276\305\327\242?0\305S\277\304\361\206\277\215\237\332?<$\324\276\006\345.?,\034\221>\330\226\257\277\313O\211?\024\000G\277Hw&\276Zv\002?\260\275Q>o\016\274?LU\307\276\222\237\025\277q>\252?\215\344\317?\273F\300?\000\030\'\275^@\265\277\200[\217\274{\225\316?\300l\224<\036sA?\230~\r\276\3160f?\220g\361\275\014\023\333>\355DD\277`\260J\275a\364\324?\364\361\347\276\302\317=?a+\333?\257p|\277\001\225N\277i\255\246\277\343\373\200?;T\267\277\257\004\263?l\316\311>\022\302\253\277\332\204\006\277P\224\343\2752\020B?\370\374}\276\200>\344=p\\-\276\330J\263\277\351\037\236?\221\312\220?f\306A?0\003\224=8\370D\276$\321\301\276&p{?N9l?\3652\211?\231\221\334\277~\322D\277\034\201r\277\275\340\237?\004\200\202>b~ ?\303{\237?\276\221\021?@4\251\277\232\246@?RTB?\n\217\034?\244F\205\277\004\373\266\277F\3569\277r[\265\277b\266\222\277\305w\236?b\306\007?\306\322I?x\270\254\277\252u\006\277\212\3059?h\365\033>d\370\226>U\247\211?LS\351>\216Y\031\277\252\001R\277R \247\277\371\235S\277\313\352\323\277\333\\\300\277N6\013?\354\305\010\277/\324\333?\246~{?\260\376+>\200\232\013>\t\344\265?\362\\\001?\264\313\367\276\032{r\277\026m\262\277|\264\302\277\204v\374>\364~{\277\200\205\317\277\013\312\236?\233\022R\277\313\275\211?`5S\277\314\253\220\276 \325\364\276\200\3778=m\253\220?/\365\212?\327\247\210?\240\212\260\275^\267(?\013_\334?\273\014\267?\331\301\242\277\347\374\264?\"\006+\277\240\r\332=W\342\331?\260\266(\277x2L\276d\342\240>dl\243>\320<=\276<h\322\276\225j\274\277\320\325\034\276\003\371\200?\253\007\250?G\267\323\277(\031*\276\306W\205\277\233\234\257?X\212\203\277\376y\254\2778\231\021\277d\260\341>\260\306\252\275\000v6\273I\247\277?\360\371\213\277\202}\004?4\3375\277\022\004\013?\201\326\231\277P\320\035><(\227\276\262\031\270\277\215\002\264?\203\355\266?1\356\252\2776\341\273\277#\363\201?\207)\272\277\\0\377>\357\317\325?\347\266\304\277O\230\236?\331 \335?\340@\323\275\274\236\230>\214H\271\277\002\363/\277P\234 \277\276<\206\277\314\231\302>\000\3021\274\251S\240?\311\301\265\277<\032\311\277\224\t3\277\037\241\253?N\2226?S\203\270\277\024\353\347\276\222\225Q?\350~\212\277\266\034\032?\177\376\325?\217Z\323?(I\332\276\366\300Q?b;`\277\270J:\276\276\227\226\277\013P\271?D\271\215\276L\343\035\277P\371\370=\342#\321\277\233\216\230?\024v\241\277\n(2?\003\342\310?n\220\313\277Z&k?\217\216\254?\264=\320\276n\250\036?\020\352\320\275\257!\202\277 \221\320\276\200\244\033\277\263WE\277\000D\250\274\242\377\235\277\033\377\261?8\355F\276\027#\310\277n\225m?\246\200U\277\030t\242\277+\350\257?\343\227\205?\337\262\204?\234\326\321\277l\036\331>&\364\213\277\274;\254>\304\351\301\276\027\036\316?@\346s=\326\265j?\326V>\277\200r\300<\000\315u\277xh\352\276\340\2031=GL\322?4_\245\27768[?pP\320\277\000\n4<\235\270\244?~Xk?\360\226\030\277\261\345\330\277\000Q%\274\320C\310=,_\363\276`\215?\276\200\226C=\372i1??\014\324?\213k\201?hf?\276\323\267\252?\240W^\276\340f\301\275*\327\220\277\207\264;\277\016\221U? ;\244\275\360\251&>N\367n?\326:*?\367<\234?\377\346\253?\026\362??m\013\274?\210\334\244\277\247\271\243\277\004z\334\277\"\302/?\000\030 >\205\271\272?\202\221\325\277\371\215\263?E`\274?5f\215?1\267\255?\267@\215?\311r\331?Q\323\276?\3722\027?\036\257\313\277\274n\307>\030\036\205>h\372Q>\263pF\277\347\263\233?\223W\316?v\357M?r\2050?V\036N?\234G\354>Xg\251\277ZU7?\243h\334?P\001y\277\2320\201\277\366\221@?N\213B?)\316\215\277\344*\240>\320\315\203\276\204F\314>A\232u\277\370}$\277Sy\321?\225\351d\277\275\242\276?o$m\277\030+\274\276\260\217\311\277\376\212h\277\300\321\247<^\356\300\277\336\301\217?4\265\204?Y6\'>~|\300>\nPm?\246]\243\277(E\222\275\244\250\014?\374C\223\276$\017S\277\t$\226\277C/\234\276\2150\241?\332\032\350>\206\306\227\276\'\3625\277\204\020\245?Q\364E\277\001\n\267?MO\236\277\311^\221\277\340RJ>Bg\302?\302JO\277\tU\235\2770\036\370=$\246.\277\017f\310\277\246y\355\275\006{\304\277\267\313\216\277\377\236\207?\307\010\004\276F\010\240\277\370\331=>\234\353\250?$\265\324\277<\265\335?ud\246?\240/\002>\247\t\030\277\316\240\312\277\230IO<9\244\037>C\373\346>q\353\237\277\215\206\244?\261H\253\277\361l\266=\333\355m\2772\221\200\277\177\340\313?\276b\211\277\237\366\276\277\353\254\257\277\255\037\246>\353=3\277kJ\312?j\242\332?n\206;\277v\322\251\277U\311\246\277:\277\333?Xu\325\277\005\310h?\317\265\274>,A\265?\377\3365?\347X<\277&\254\322?\217\337\274? \357\014\276\365\321\310\277h\035]?\375\233\263?\2665\274?\0335u\277\002d\276?\225\311K?\255\014\276>\031a\026\277\257\314\241\277Kj^\276]tE=\026\257\256\277\362}\225\2778\023\224>\243\0246=\002\215\304\277\224\326/\277{\326\264\277\017p\025?$\037\265=U\265}\277\245\275N?\313\246\237?iv\327?+(\310?+\317\254\276\346d\246\277\323\353\021\277d\201H?\202^c?\221\232F\277D\221\303\276\3264\326?l\000Q\277\2722\226?\033\206\217\277\026)\331?h\231X\277\3304\024\277@\2342?s\263\014>\256\316\212?\350\347\301\276*\017\003?V9\204\277\320O\321?\004v5\277\321~w\277,%\034?A\343\005\277\272\352\273\277o\002\230?\326%\323>n\377\246?\272\356\246\277\000\002\356<\032\231B?(\273\001\277\341\023\207?w]\251?i\005\324\277\210\r\305\277$\236\311\2776\336$\277\024T\232>R\364\271\277\323K\213?\220\342\033>\370\365\\>\333\233\252?0}\366\275j\0363?,\007\340\276\351\301\205?V\311O?\330\335u\276X\245\001\276@E\374\275\320f\003\276:Rt?.\373\234\277\346\247^?\276\357\332\277\270\014+\276\266\202\245\277E\233\252\277\013\243\263?\030\032\242\276&%-? \354\031\275\231\202\244?\273\222\234?\311[\322\277e\016k\277D\367\366\276\234A\240\277\265\224\252?\320\224*\277\222\307\022?N;c?2\2379\277\000ZU=Z\335=\277\260c\247\276\024W\372>HNb\276\336\177E?&+!?\000A\372\273\023T\226?\316\362e?\324J\334\277\033\216\274?p\354\216\276\364\262\256\276\207\036\262?\336~\200\277tF\356>\013\276\242?\333y\244?\306\362i?\275\261\305?L\236\310\277\270\022\004\276\365?\235?\315\023\330\277T[\366\276s\375\211?\250\003O\276@\241\235\277x\023\004>\366\002\317\277\000\316\204\275\300\217K=\320t\352\276\003Ny\277\350\311\236\277/W\245?\320\"\010\276\005\350\256?\344\362\201\277Aa\317?\245t\273\277/,\241?\307k\307?\201\256\253?\240\032u=j\345r?\313\204\323\277h0K>\314(\225>\364\374\350>\220\367\207>S\212\215?\220\230\351\276h\272\231\276k\324\255\2774\301\216\2774\357\271\277\364S\360\276\231\323\332?\254$\306>\316\036m\277\204\232\223\277\3366O?\253v\334?1\306\251?\320&\202\277\262\317`?\006#c?\354y\214\277:\200~\277{\035\210?\036\237??\3309\203\277\367\315\240?\300\351\232\277\272hr\277[j\210?>\026\n?\226\2239?\344D\257>GM\207?\200\306?\275\336\273o?$\020\337\276\240\0075\275\364?\272>\206fy?g\313\311\277\351\247\331\277.nF\277T\220\270\277v[z?h\n\302\277\260\263\327\277~\367\312\277]\344C\277$!\246\277\276Uw\277\327?\265\277\232\372\203\277J\303\026\277\200\227\r\276\233KH\277\007\310\224\277\027\221\217?\246\307}?\227`\211?\241\375\244\277\214l\313\276l\263\333>\224\273\343\276\304$\250>pvx\276\346<\261\277p\300\313\276\225\246\240?P\356\344\276\240w\260\276\025-\272?S2\312\277\314\211\306\277\252K\230\277\234\201\224\277\220\307\257=Ks\205?\237\017\271?%\257\306\277\026H1?\324\177\233>\200\342/\274\255{\301?\000\226\004;\270\251\262\276\243S\250?vu\004?jKh?pp\331\275\022h\223\277\241S\251\277t\263\300\276\000=\036\276\000\370\241=\276\031M?\220c\210\275\007N\327?|\360\304>!\332\243?\024\027\326\277\232;w?\360q\326\276;8\274\277L/4\2777D\327\277lR\036\277}\320\235?\2641\374\276\031m\205\277\241\361\220?\212\021<?\177\347\243?1T\302\277P\034\024>\016\304m\277QQ\222?\356]\316\277\332gz?FS=\277\317\267\277\277\240\001\241\277M\236\323\277\377\036\203?>`=?\364\253\306\277\007\270\216?MZ\261?`\033\270\276M\265\303?\267\014\257? \tF\277\027\\\251?\373\030\315\277\032\233\014\277Z7I?\344(\206>r;\207\277\266\353U\277>S\264\2778(\376\276H\276\002\277D\002\226\276\330A\305\277\266\210\270\277Znv\277DQ\342>\372\014\327\277\030\036\201\277Q\200\225?\275\372\220?\235>\234?\331\231\266?\335\002\321\277+\014\256?y\271\320?\210\202z\277\212\034\007?\200Y\033<\026zM\277\207\243\326?\277!7\276\002\036~\277b<%?qf\005\277\344\361\030\277\001\200H\277/x\022?\355x\220\276\200\252\016?cB\333\276Z\266\310?\246\246\016?2\375\247\277X(\343>\257\237\327\276\371\0300?\nUw?\346\221O\2777I%\277\007\343\366=s;\025<\353\311\350>\362\322X?u\266\256\276\022\005\211>su\224\277\'Vg\277u \325\276\313f!\277\276\032B?\335C\314\276\2262\273>\274\223i\276<+\354\275\346\000\204\276.T\303?\347\t~?\261\n\013?P\237I?$P\317\277\373\321\220\277\340x\233\277\r\022\261?\206\320?\277,\013\320\277+\024\206\276\024?\323?/$\245\277\004\370Q?\361\274\224?\353!\237\275a*[?\202\336F?`\372\217\276\222\242x\277p\237d?\220\362\304?\247\313L>\02077\277\031\355\202=$\245\034>\216\014p?\n\020\310\275\267(\333\276\253+\265\276\021\266\200?\312a\327\277\263z\244?\034\362\301\276\360%0>\002\305\n?gP\266?\000\257\264?O)*?soC\277\034[\256\277\216\033\247\277\021\3341\277\217\2106?>\367\177?F\243<\277P\345\306\276\317\264w\277\002a>\277\325OE?\341\366\201\277?\301\241>\024\226\276\277_\313\263\277\003\n=\277.\0012\277Q\017H\277g1\315?\301\227\'?\024,3\277\331\374\360\276\254\016\303?4\204\306\277\264S\200?\362w\315:\256<\022?\355\3437\277\003y\214\277\201\013\257?\202Cd\277\271 \350\276o|\242\277qN\316?^\027\302?\301=T\277\266\273]\277\227\035\312=\225\026-?S\374\251\277\365:\247=\325\247\233=\213\230o?ou\221?\210\256\271>\273\027\370\276\3446\236>\020b\333\277\034\321\251\276\206\236\\\276~\177\031\275rv\312?ip\211\277>\257\177?\246a\250\277\365\020e=\244\021\217?M\362\231?\316-\254?Qth?\333(\001>L\247m?\241\246\\<\235\016\026\276o\016\033\276\361\300\302\2773\326v\277\030\363\001?t\200\315\277TC\312\276\204\026\020?Y\325\251?\372\333\'\276%\363\323?\353\022\220?\177\226\323\277\374\372\014?\355\362\332\277\001\3674?\373\013L\277\370\332\225\277\346\336I?y\214+?O\232\226\2774(\231\277\241m\315>m\333\241?\022\231\310?m\264\273\277\377\3605?\202/\250=\001\306\212\277\367\363\350>\275\317\266\277\356\2143?\023qX\276?t\013?\230=\341\275\003\246\243?w\206\250\276\351\221e\277\314]y\277\376S\317\276\306\000\322?\215+\211\277?\255\021\277\355\214!?\233\225Z>O\252\262\277\205\004\325\277\216!x?2+[\277n\333\205\277\022[\241?\244)\236?\204\327\247\277qD\211?\327\026\263\277\275\'\243\277\374\212\270?R\353S\277b\020@>\307\025\337\277&hd\277\360\357\234\277v\035\241\277\320\217\271=\025\261|?\362o\312?\277\253\334>\207B\240?6\233\337?MjQ?\303\370\251?N\217\240>\250af\277\321\275<\277\010E0\277\024\026\247?\337v\034<\336\337\224>\002\177\216\277w\343\037\277~\220\365>:5\264\277\336y\352>\005\223\204\277P\320V?\337\375\203?\346\003\311?\005\030#\277?vF\277?Y\273?)\217\302\277\017\211\206?)\317H\277\263\306\316\277\250V\213\277\344m\264?\234\036\035\277x)\231?\'\031O\277\336\275\202\275\203 >\277\261O\216\277\337\320\304\276\032$\333?F\325\260?*\t\371=GI\351>1@\200?\241\021\363\276F\340\\\276\241\274\216\276\225%\370>:\246\274?tF4\276\307\177\033?S=\323\277KC\256\277H\357\265\277\245\004\n?\214\001\244>\330v\265\276\366\371\025?2Yl?G\013N\277\340KY\275Q\334\252?\301s\306\277G#\317\277\256\2748?\000bL<\017\'\252?`\325\276=\264\317\261\276(\326/>\365T\247?H\232\374\276\014\217e\277\343Z\267?\014\371\243>\004\035\266>2\022\264\277Y\026\267?G\347\301?`\021P=|O\334\277\362p6?\026\350\177?y\016\267?:\272\022\277\241s\261?7\300\253?\363\376\324\277^\001v?@\345\374\275\366\235\n\277\023#\211?e\375\236\277!\n\242\277b\314\234\277X\217K\276\266\212i\277\352\211t?\005D\252\277N\026g?\324\210\320>\300\255\250=\267\"r\277\2154\262?\330\340\323\276\342\237\247\277iL\270??\026\300\277\356\007\023\277\207\354\252?\t\202u\277 \314\\\277\0243\365>\3731\257\277X\232\206\276\350B[\276\251O\332?\354\244\206\277t\266\212\276p\276F>\024\245\270>Qg\227?jp{?\244\325\205\2768:\274\2776\211\231\277\200\221T<\220\024\212\275u\255\321?(\230\225\277\013\356\257\277X\267q\276e\003\265\277\370\233T\276\020{\017\277Q\246\226\277\366?\262\277\267@\330\277\373\265\247?!\030\200?\224\361\374\276\374\274\214\277\266\024\004?d\371\270>\356\240H?`z\365\276\240\335\030>5\237\313?>\223K\2772\201\321\277\206\367\310\277\200l\017\277\231\243\224?\305F\310?\301K\264?\240\366t\276\275\034\225?s\326\223?\216\004C?\342\344\252\277\374\354\340>\025*\275?\275+\232?_\231\325\277a\311~\277\002}a?\270J.\276\237 \267\277\021K\323\277P\002\272\277S\034\202\277.m\215\277\367\234\236?,u\021\277&)Y\277\236a\217\277\243w\231?\020\"\316\276\302*\253\277rJa?\226\037Y?8\273z\276\230\007\213\276\236>\315\277\222F\243>\240\235\347>\252\tm?\225\367\341\276\036\026~\277\2679V\277#i\307\276]n\342\275\006C\211\277\213\203\301\277\177\213\016?\217#\227\277\244\365\003?\202\320\333?\247\0270?\022\343\021\2777\235\316?7\"!\276)##\277\344\0013\277<\263\263?{\204\331\277\360\372\243?\256\037\362>\025 |?\024\010\341\276hyY\277@46\277\230\360\304\277\\\327\264\277\311%\252\276Srw\277\356\022\021>\306K\201>\337S\243>\275\323\250\274^\243\370>\275\353\310\277x^\215\277\214\3511?\321\340\312>\371\247\315\276\315\244\240?\030E\235\277]\002\024?5\257j?\241\tL\277+\014\230?\351\035\005>/\245\256?\200\234\016?\200k\303\277n\273\273?\010\245>\276\222i\325\277_kJ\277\377_\260?\252\357P?\336q\224\277)\004\013\277/\207\032?r2}?-\020`?\371{f\275\223\236\231?\234\020X?\271\033|\277\263J\245?\200\370v>hD\301\277\235Il\277x\232x?\031\264\350=\024\217\326==\024\004?!\202\332?\367\351\276\277p\277\226\277\271&\221\276\026\'\022?k\220\247\277\t\202\330\277r^\207\276\362\264\316?\201l\333>e\212\266>H\3759\277\007\177\326\275FW\307\277\236\242\251?:\200e?\355.\302\277\240\230\014?\212G\335\274bS\251\277\341\306\201>\266\251\004\277WS\313\277\340\213\333\277\235\267?\275\002\220\301\277\213\366\263>Ok\340\276:b\262?%c\317?vY\202?L\'\254?h\021\336?\337bO\277[\256\365\273HJ\200?\231\325\304?\254\232\321\277B\001\227\277m\000\270?\231\337\264\277\252\232\254?,h\014>\204\036\261\276i\253\254?v\370\236?]>\317\277>\022}\277\034\205\314\277\323\016\344\276\357*\253\277?x?>\352\252\021?\323\r\201?\004\245\233> @5>\252\217\201\277\003\304K\277\230|\005>\302k\335\277\232\3572?\254\310\265>\024D\273\276\256\243\273\277\006\003X\277\342\334(?\340RI\275%\355\244?\240\250\240\276\255\024\307?\020\257\363\276=;n\277 L>=\340\246u\276\000\360\244<\030\370C\276eY\242?:p{?\020A\241=P0\001>i\267\325?\001\252\262?>\252A?\350\036j>\314\361\214\277\204\276\271\277mA\324?\336\014\201\277\222;n?\222\372\032? \354\\\276L\213#\277\340\203\306\275!\342\300?\014\357\300\276\000M\020<\252\307\254\277|\222\321\276#\371\267?~\252\023?\355\020\314\277TK}\2778L\321\277\340\262\371=\312{z?21N?~\024\247\2775\350\333?Up\247?\242\2074?\315\245\211\277\273\033\212?\251\200\217?\240\244b\275\212~$\277\200\"\333=\234\311\310\277<V\277\277\236\237\245\277\231o\320?\030\002Q><\017:\277\002\277\225\277\207\335E\277\236\335e?\267|\306?,.\205\2775N\233?\263-\222?\310mP>\220\275\230\277\231W\326?\010\322\334\276F\200$\277\244\360\311>\3019\266?\373\317\211?0\241\260\276\362\240A?[\227\202?\250\277\223\277y\350\302\277\234Z\312\276X\002\325\277Q\266\320?M\250\205?\205\274n\277\326\2012\277\300$0\276\324\275\313>\271\225\206?\311\311t\277r\000o?\316\265\177?*\256\307\277\275\014\320\277[\200\311?\213\211\242?R\331\031?\n\313\324\277\340\325\304=xt\365\276\254\263\265>SJ\206?.?\016\277\231\271\331\277<\020\244>-\233\242\277\253\274\236?oP\307?\276\\k?\220\210\007\276\242\005\330\277\340A\037=J4\214\277\314\347\211>S\347y\277\217H\214?`$\253\277+z\306?\007\202\265?7\n\306\277\375\222\016>\000\"\337\277\216~z>\201iD?S\307o?\211\200\207?\257Y\243?C\357\210?J\216\037?\030rv?\177\256\226?\315)\206?r?\256\277]8A\277\201\267\246\277N\262\233\277d\235\177?~\324e\277[\275\'\277\371\210\227\277)\215+?lc]\277Q ,\276\037\022\301?09\320?J\243\312\276*\025\206\277\203d\324\277\300B\203\276\244d\312?\3165B\2775\224\231\277\002\225\210>\327$a\277H4q?u\331)>5c\227\276\026\3275\277yD\272\277\266R\306>~\211\265>\251U\210?\013mw\276\273\007\315?y\020\246\2778i\261\277\222\347\330>\237L7?\362\243\230?|\325<>\2257\325?\345\n+\276\325\033\205\277\345\006\234\277`~\264>\2554\252\277\304\244\335\277\350\262/\277e\241\220\277\347P\326=\r\034\304\277\210\027T\277bq\306?\317\004\031=_H\334\276\312\252\231\277\\\234\233\277\241\307\313\276\313\272\223\277\373\373\\\277mI\267?o\246\372\276\230\032\264\277\343\3013\2778\327:\274\231\216\327?\005\270\215\277\350\007\302?\200\013\261?\035h\307?\013\035\231?(\342\243\276\363!\344\274\356\255\205?Xo1?\"@\036\277\330\340(\275\202\240\205>\301\'/\276\201\301\263\277B\273\217>m\314{\277\303\216\277?\007\270\303?\017m\343?\355w,\277w\372\305\276ZtE?c\235\205=N\254\331?h\371#\277\014\345\256\277\020\371Q?\014\260\016\277\365\023\001\277 ^G?\005TW?IJ=>I\274h\276a\274\327?\024P\207\277r\210\211?\205\277\205?\000\266\274\277\025\270<?\344 \325?\213\003\313\277U;\237\276yq\254?\253\331\230<\253\370\273?\344C{?t\374\024\277\354/\242\277\302\271\315\277\200\234\242>\230\232\234\276f4C?0\323\326=\310rw\277\210ng>1\313\240?\2334\265?dQ\314\277\260K\253\276\256K|?\277Dj\277\036\201\027?\273\373\322?\205]\224\277\300d\253\276\314\364\367\2760\247o\277\227Vl\277\322D#?x\305\305\276[Ls\277\371O\233?\341?\213\277Fl^?9\373\304\277m>\266\277\335\260\241?\372\336\023?\300\255\354<?\347\242?\374\211\342\276\311\247\225?\301\327\303?\034\324(\277P\306\235\277\320\266\216\275\200\003E<E\024\270\277\276\213_\277\326M*?\226\261H?\244\234\320\276m\334\306?\340\275\302\277%\016\335?\023\211a\277V\245\323\2773\314\311\277~\225\t?\255\353z\277\324\014\315>Q\233\266?d%\215\276^=\327\277\327.\323\277=\236\221?\324\200\205\276\334>\200\276\251#\225?\225\240\211?\2008m>\233\322\263?\340\000F\275\213\201\254?\316\013:?{\240\252\277\230\354\252\277\016\024W\277\256\023}?\302\225\007\277\261\232\272?\327/\316\277\216&\006?\212y7\277\364\354\201\276\247\207\312?Q.\243?\201k\215?/\364\237\277\3472\272?\363\320\306?\024O&\277,\207\302\276J\360U?\257\024\320?;\223\323?M\313d\277Y.\250?I\340\206?\211\221\313?\336\032\261\277\270\207\003\277\234\233k\277\374\3500\277\3703\013>\241\211\322?\t\312\225\277\034f\253>^\2715\277\370\037:\276M\244\230?\243\315s\277B\0332?\216S\"\277SN\310?\324W\215\277\313\336\323?<\240\324\276\006S\247\277\272\0055?\311\302\252?9\257\251?j\312_?F\nu?\000)W\274Aw\236?\027\373\277\277v\302.?2\305}?\375%\266?TT:\277\230\223\307\276\222\335Q?@\220\265=\342M0?\255.\330?\010&\223\277\304\223\226\277L\263\311\277\217[\270?\030(\266?\341\\l?\232-\330\276\344\016\236?T2\037\276\021\356\021\276]G]\277\313\252\304\277\261Y\n\2779Jh?\303H\342\276\355\002\214\277\315*\034?i&\304\277\337\n\266\277\340\037\317?\346\344\245?\025\235z\277\327b\227>\300\223\257\277\177\337\036\277\036\242\341>}v\266?|\263\320\277\327v|?g\372)\277\237\254\253?\353\030\223\277\253\r\313\277\034\227\215?\344\365\227\277\341,\000\277\275\316\303?\264{\017?tV\302?\325\332\261\277\373]\263\276b\222_\277\000\201\270\277\321\376-\275\347\331\230\277\272\202\233>w+\243\277<\327\200\277\001\262\227\277?\346\010\277\257S\253\276\366f_>\356\244\272?\233\210\221?B\357d\277xh\021\276\321\332\201>G\"5?\002\234\304?\200P\271>\220\311\202>=\203R\277L\323\247?\201V\224>\n\210\013\277\327?\205?0\200d?D\002\236\277c\304\351\276f,U>\001\250\007\277`\215\231>\334\017\265=\371\n\364\275\"\263\352>\337\352@\277*\244\304?\337\000\370>9\0165?J\275\247\277\335\017\326\277\237\310\004?\203\0258?B\036\272\277\001\255\230>\312h\356>\374\004\204?\321\352(?\000!\274\277\0053\337>\231;i\277@E\245?u\213\264\276\325\234-?O3\016\277\t\373\337?\312\275\230>P<\233\277\315\311\212\2772&\264\277\257\365\304\277G\331\250\277\262\030\275?\253\271\357\276\312U\243=\355\336\210?\231c\302?4\371a\276\277@\010\2777\241=\277!\377\211>\242\375\256?\262H\230\2776\t\217\277\254\037\237>x\372:\276S\014\223\276\272\253d?\373\333\320\277\005\004\270\277\357\236}>k\331\332?\233\240\020?\202\002\324?\027\312\315?mH\031\277\302\301\241\277\355\2109\275\3307\200?\243\0039?\010J\006\277\\h,\277\212\275\223\277\035\203$\276\255_5?DL\303\277\317\177\035?\365W{?2U\213\277\343X\356>|\326\271\277!{\261?\000\240\037?\325\237\334\277\245\275\256?\262\326l\277-_S\277\252n\221\277\220@\270?\366\251\247\275\300p\312\276\355?\221\277\354[\334?\030\274\275\275\2547\252\275=0,?\237\210]\277*\241k\277|0\241?)\260\023\277\r$\236\277\334\3766\277l\217^\277\365D\010?\177v0?\336\305i?\004\377\254?\300Lz\277\374\240\240\277\360\351\245?q\026\271?\003F\273>*\025\267\276\222\225\202\277QL\224\277c\265\301=9 \313>\021\336\036?\347%1?\341j\270\277\303l\341?UL\241?\367fQ\277@\025\257?\234\301k?\313\312A><\352\037?R\222\250>\255\315\032\277U`\271?\014\007\344?Q\223^\277\254C\275\276\n\n\264=#\377@\277\n\262x?)\360\312>\352T\237\277\007\021\005>\351\362d?#L\207\277\235&\215\277\212\261\363\2769n\262?\323Q\321>\037\203;?\246G\241?\266y$?\235\203\035?\375\260\272\274f~\242?F\347\224\277\221<\243\277]>b\276\341Y\306?!\021\310?\370\2575\277X\326\242?\027\021\306>\374\024\306?\365Y\323\277*\006\244=\001m{?\333\343\013\276\201Y9\277K\352h\277\236(\222?$\030\205\277B\2634>-\212b=\376m\327\277\021\224\361\276\356\253C?\215\315\035\277\024\317\010\277M\2169?\333\307\341\274\275#4\277\334n\302\277\021r\025\277\375\261\r?~\032#\277\367m\310\277\313wF\277\211H\005>\3237\233>\324\357\247?%O\227>\273\237\r\277\235\363\270\277H\260@\277\204\202\023\277\324d\267\276N%\247\276Q\316\226?;!\231?\272I\306\276\301f\261\275\361\304\\?,$\211?\375\004\334?1\234\315?x\\\256?$\231\217>\377\021\325?\214\311\261\276p-\021?\224\342\317\276\004\266\335\277\372\277\330\277\235\033G?/\200w=\275l ?\214\201\304\277t\225\254\277%60>\250\273[\277\371\271 ?\235\200M\277\227t\256?\341\214\272\277\320h\273\277\013+\336\276\310V\272\276!\261\251\277\360\\\254?\374\310\235?\214\224*\275\027\027\256\275\205\227(\277O\213l\277\277i\236?\275z\325\277L\027-\277\"\327f\276\026\370\306\276e\200\025?@*6?\0333\005\276\275\230\247\277\356\345\342\277\301\304\'\277)\243\257\277\322\213\271\276\230\255\204>\236\210\261\276\353\255\370> \336\206\277V\272r\277\017\263\270?\243(\025?\245\331v\277\036\307^?H\235\265?\224%\001?\037\005{\277\226\204\256\277\231\003\202\277r\000\305\277\337\332\222>\304!\357>\262\252Z\277\354\240\007>\317\tx>\227\316\030?\240\3025\277f?\234\277N\345\254?\211i\221<eQ\227\277\033D\246\276\336\230d\277m\247B\277\r/O\277\215 9? \022\251?!\367\003?x\322\331?\023e\321\277GI\331\277kW\215?QG\365\276\034Q\320?\361W\353=C`\177\277\3361\203\277(w#\277\225\025Y?\0046\202?\347e\262\277Y \247?\202\314N\277\346\237.?\031ge\277\334^\217\274.\336\324>u\t\270>\315\265\250\276I\326\261\277\361\226w\277\026Xw>\245l\326?\264\356j\277u\242\342>\"\232\300\277\230hT\277\311}`?p\233\022\277\205{\'\276%\030\246\277k\347\034\277\356\036\301\277/\365x\277TK\325?\262\211\355>^\203<?\356\336\025\277=\230\237\277\303!\326\277\222`\320?]\205\273\277\035v\202?\352\360E?\\\356\240>\263\016\243?w-\241\277d\305\351>\340\215\223\277J\226\203\277\033\210\256?\032ki?\202j\001\277\310W\301\276\202\311d?E\262\246?\275\274\217?\323}\323\277d]\333\277\260\203\265\277d\235\354\276l`\235\277\220\014\271\277\241 \300?B\2651?\t\017\236?@\320L\275\006\023\022?\237y\207?fZp?(\331g\276\242is?F\360\"\277>\212\006?Y\031\234?\260\316\261\277N\221\332\277g\t\326?t\3361\277P\272\033\277\"\210\207\277\n\267Y?3\252G\277o\351\334\277\320\n\242\275T\252r\277\346\236I?r\362!\277\274&\273>\352\272X?\022\274\222\277\004W\252>\374\024\212\276dF\235\276`1%\277\254\223\211>@5\244\276s?\214?\366[\246\277\037\351\245?\206\253\031?`T\222\275 i\363\276\000\236%>\262*\007?@\373\220<e\t\200?\360G\357\275\205\177\274?\'\226\261\277?j\226?&\022H?F\001-?\372\234y?\2252\315\2771\212\244?\252\313E\277\341K\237?6]\005?\t\252\201?q\354\204?\320\014)>\237\255\277?\301:\302\277\353mO\277\237\371\305?\010\361+>5\016\327\277\350\013\216\277\3164\210\277\262\200\033?I\231\216?\314\272\355>\014\014)\277\2333\275?@\220{\275L\257\364>\244\016\340\276\240@O=\320\036\276=\026\212f\277&\375\221\277\352\"\310\277t\224\324\277r#\023?\264w\272>\330\016\036\277`p\005=\3200l\276\302mU\277\261\377\220?\344\177\322\276\300\247p\275\361\006\312?\023\252\311?f\317z?\206)\210\277 WT\276\340\330d=\274\304\251>x\300k\277\273\203\303?\226\346\254\277`\002p\275{z\266?\014\220\r\277_L\305?%\250\231?\030\004\215\277 \004/\277x\014\\>\3569A?\274\342\252>RD\001\2774|\230\276\2604\343\276\301#\225?\344b\314\277\211\300\210\277\221\206g\277\027\336\206\277\tb\003\277?~\250\277\255\260\002\277\3747\215\277\267\225\032\277\235\303\205\277\223y\316?\000\016\216\277\252S\262\275\006\222}?\277B\230\2763\\\336\275\313kc?)\265\036?\213\037\321\276\356$\327?\3607\224\277\027^\312\277\320\200E\277\251P\211>\321W\017?\022\317\331\277\347V*\277d\347\037\277\220 \247?\271\214K\277\226\371&? |M\277WO[>\264g\253?\220\231\030\277G-\222\277 \020\341>W0U\276&g\317\276i\210;?\350\344\255\2761\232\000?;\030i\277\345{\240?\025f\213?\010\010\010\277-\270\210?\310\257\031?\203\226\362>?q\210>\246\213\224?\333qN?\225\270\346\274\231^\264?\351\2111?\346\342\247>:\332{>\016>\327?\263\025\300\277`\213\310\277\251>\226?\263\303\335?Q2q\277\324\244b?Hi\326?\274\032\206?%^~\277\334\321\245?\002\266C?\251\257\260\277\222\361g\276E\023<\277\265=\232\276\255 \242\277\035/\351>\312y\230>\272\326\307?2\310\234?\204\227\204?\370&\334\277!R\004?\342R\216\277\332\267\036?\314+\033?R\005k?\311\013\"\277\236\326\271?C3\277\2777^\004?6\005*?mlU\277\252\303\201\277\273\346\332?\200\235\262\277\337\267\373=:\033_?h\231f?\3608\203\2769+H?bO.\272\352\262\302\277\260\2422\277\213\014K\277\020\213\261\277P(\225?\235\330\255\277r\237\205\277\004\205\010?k\314\251\276\201\363\337\274s\311\377\276fa\344>\340\317\343>>\030\351=q\022\277\277\020\273*?NJX?\341:\225;Xq\375\276\272c\202?\356\241\273?\372\223\232\276_6]\277\270\"v?\255\027\255>,\204\212?T;\365>B\370\311\277\032\036\031?%&\312\277\372\0233?E\370\261?\344\325\351\276w\264\242\2774^-\277P\260\t\277\300W\235<LM\337>\362\331g?4\354\247\277\307\r\273?:\363Y?\216\r\272\277\332t\232\277r\227\334\277\316nt?f\346O?:$A?\222R\265\277D\214\275>\036\351$\277\262\363D?\300\253e\276\\\246\232>Zx6\277\033\036\201\277\000\327\267\277\036\"\215\2772\361I\277z\214f?@^\337\276sr\265\277\340\377\026\275\327{\322?1a\264?@\263\307<\300h(\277\320,\341\276\000X\365\273\354\300\327>\246=h?\307\324\316\277\334\2711\277\274\021\225\276\"\330\220\277\320v\237\276{3\242?\200\242\233\277m\203\330\277H\002D\276\302\322R\277\004B\361\276v\002\277\277\025\352\250\277D\335\206\277k\367\203?+Y\267?\354\r\316>\201\207\302\277=3\307?\334<*\277.\032\021\277f\250\010?\324\375\305\277\266q\310\277m\201\316?\357\201\323?F41\277m\264\210?W\221\316?<\355\201\277\207\335\231?\3761\274\277\354\031\231>\201r\230?\002d\022?z\rj?\0303J\276\"x\302\277\264\204!\277,\246\360>\217\\\236?\230l\267\276\250\357(\277\321v\314\277`e\'\277\224q\356>\005\022\237?\343\277\316\277\235\342\277?--\314?\330\017\314\276(\262\250\277\200c\257=\270Y\271\277\214\027\337>\200*b\275\360\264\270\276\000\336\322<t-\250\277\3209P>\250p\320\277\320\3231\2778.\033\276\314\376\203\276\3516\236\277q\256\247\277\267\021\266?@\272\312\277 tf\276\206\206N\277\227\340\241?\351;\254\277X\211\213\277L\310\322>yS\301?:0\005?w\301\236?\010\034\'> \326m\276\300i\232<\3024??\036\363\002?%j\207?\324\3769?~\316|?\025\334\304\277\301s/\277\255\263G\277\231@X?\t\304\255?\026\336\265\277\202H\000\277\260Sf\276;g\211\277\2776\252\277\020\310\313\277\202\276H?\250\262\315\275\361Z\201?Z(%\277\260\242\007?\330C\313?\333%\331?\315\340N?\007\013\277\277@\335[?\324X\331?\002\343\203\276\273\036\314\276\326\202\272\276\321x\221\277\306\374\202\277\345p\t\277@?x\277\304\364&?\367+m\277\027\313\267\277Kh\200\277\241_t?\303\014P\277\261F4\277\260\306\317?o(\240?\332\347\221\277Z\305%\277\322\314d?\345\231\224\277\006\350\320?!\334W>\207\305\226\277\320\222#?\242\005\014\277\210>`\277w\031\312\277q\3463?\242&\000?i\240\235\277\337\030m>\350\332u?NqV\277\265\302\204\277\361!\222;,<\325\277NQ\261=\214*\270\2778hr\277\211\345\321\276E\'\262\276\273\035\264?M4\277\276\0053\226\277\307\355\310?\261V\240\277\375\273T?\346\207\227\277\362\244\256?\346\222->W\"\360\276x\266\352\276S\333\221\277\026\014\235?=Og>\260\251\264\277z\376\242?\025\221\225?\277\337\304?\3735\243?~e\260\277\t\313B\277<\017i>\014\237\216\277$#\254?b[^?\3538Z?G\217O><\377\262\276\001\271g\277\236\230\241\276UI\270?\251\332\226\277\274\031\301\277\351f\216?\266\"\250?\224\235\300\277B\245y?k\201\335\277\327\365\257?\203\344 ?\270F\263\277p\201\242\277\024\0341\277BX\342?\344\035\245\277\t\'.\277\306\326\336\276\334\026*\276\326\357\256\276\022\254\\?=\257\034?U\351\\=\370l,?\357\304\215\277\204\232\214?xq\314?v\007a\277NO\n?}Q\251\277\030gZ\277\241\037\255=\260\252.?\021\261\225\277\222\215k?\235\311\207?-\201\306?\346x\034?@\354u>\274Qj\277Pg\237= \245\372\276\3261\'?\340\343T\275^c.\277\250\241\220\277\002\217j?\2708\301\276\363\267\246?\340#d=\224=\317>]}\313\277N\232*?\214\035Q\277\240\351\"\275\037\271\277?\021\336\265?\300r\362=\300\236\344<-\315\260?\200?\004=\272\301z\277\221\324\203?c\356\224?\347\204\235\277\330\250\277\277\344\347\366\276Z89?qou\277\022@\230\277\347\240i\277\254\225\352\276k\277\302\277\223\321\215?J\232k?\305\325\312?\020A\335\275#\375\255?\3733\323\277\273\341\250?\200a\237\277\332G\037?a\006\332?;\230\256?\300\355\207=\251\301\235\277 \352\254\276\262\316\r?\255\276\315?\023;\216?P$u\276!\326\207?\367\305\245?\300\206\033\276\276\231\272\277\000$W<4\243\226\277\272\251b?\345\365\257?\240\350\347\275Rix?\"@1?\334\"\355>Vt\024?\301\251\270\277\204\265\337>]\244\242?\300 >=\021\003\200?\266\\\t?\022\342\277\277W\217s\2775r\217?C\006\316?\032\373S?\246\334@?~\226r?\200\303\023\275\000\000\335:\333.V\277|\303\316\277F\037f?\352\034\"\277\240\272\230\277#\360\237\277\200\202Q\274J$#\277\246\032\n?\351\267\222?\322\031d?\020\312\352\275Nz\323\277F\010^?\023g\200?\211\352\212?(\330\034\277\270S\214\27738\310\277\t\345\233?H\313Z\276\324\263\227\277$\251\245\277\277\364\307?\340\025\251=@\375*\275\355\237\330?\364\245\216>L\036.\277\352\242R?pn\200\275\225^\265?\nt ?\004{\201>\347\354;\277\370\0318\276\374\037\354\276$\234\243\277\346\202\035?\264s\332>\322\242z\277\014\237\275\276\236\317R?"
      }
    }
  }
}
node {
  name: "embedding_rnn_seq2seq/rnn/embedding_wrapper/embedding/read"
  op: "Identity"
  input: "embedding_rnn_seq2seq/rnn/embedding_wrapper/embedding"
  attr {
    key: "T"
    value {
      type: DT_FLOAT
    }
  }
}
node {
  name: "embedding_rnn_seq2seq/rnn/embedding_wrapper/multi_rnn_cell/cell_0/basic_lstm_cell/kernel"
  op: "Const"
  attr {
    key: "dtype"
    value {
      type: DT_FLOAT
    }
  }
  attr {
    key: "value"
    value {
      tensor {
        dtype: DT_FLOAT
        tensor_shape {
          dim {
            size: 224
          }
          dim {
            size: 384
          }
        }
        tensor_content: "Ic\331<\323\206A=f#\203\275\000E\323=G\255\340=~\266\277=\030\334a\275\006\3308\275\235\216{=\020a\201\274%\'6\275x\222\231<\330S\215=\002\322\335=,oa\275\374\322x\275\315\302\n\274(y\313<T\374\263=\267\375G\275\252\377X=\275\253\341=\306\r\205\275\017\321\242;\363\314\027=\336\242\215\275\227\033\231\275\247\251\230<\302\311 \272\222\362S=B\305\025<\371\204w=\377u\207\274t9\235\274\374\255\203\275.\267\006\275\346-\223\275?\376\203<\022\2400\275C\366\326<\330\264\247;\327w*\275=\225q\275\354\037\242=K\213u=\0271\236\275\312\374_\275\207\n9=\363\307\265\274\026rS;\277v5=T\336S\275f\305n\274,U\210\275\343\006%=\217\203\302==s\224=\202c\200=\204\017(\275_\335\313=\255\221\216\275\234\263\252=\364\265\244=\255\204(=\203d\214=L\221\r<\300\rh<\2754\016=\202\207\274<d\254\276<\323\332\265\274#\246^;\r\000\263\274\201\361A\275|WR\274\243\027|=]Cv\275\366\177\313<\341\242B\274pA\213\275P\"\216=\365\032\246\275`}\304=\305\006D=\316\333\213=\350`z\275\257\026\372\273\257\320\240\274\226\tr=\t\322\251<\216\207\025<n\357i=\351\010\365<}\003\230=9\2547\275\256L\336=\365\377Q\275X\033\004=\354K\241\274\266\376\274=\004\010u\274 6\323<`\345\251=\307E\214=\202R\242\274\266\363\253\275\220\330\277\275\271w\213<\263\312\334\275\305\323!< \331$;F\237\242\275j\204\342\273\211\374\216=\302\263\251<\246\257\343<\314\253\277=\325*\244=]I\t=\372\277P=(\032\270\275\030Z\\\2755S\364<\0145\305\275\312(\246=\025\"\212<3\303\357\273\355\224!\274\365\350\333=\006\301\177\275\275\302\320:oV\271<\333\355\273\275\225\234\342=\366n\204=\261\202\241\274\010{\302\275N\354#\275-\326\243=T\177\016\2745\327M=p\363\204=B\244\334;0\252\377<oSZ\275\225\371+\2758/\t\274\301)\007\272|a\200\275\255\006\230={\024+=\264h\276<\017\023\224\274s1\210=\205\344\303\275*|\242\274\354-\252\275c\225\301\275\243oG\275\222\274-=\036\327\312\274\345\235\225\275\314\232N\275\213o\203=Y\244\246=\226!\305\273\030/\332\275\3166\007\275\032=\333\275\3446\235=M\305\201=W\335\355<\247!\224<\371\345\376<\312\276\300<\312\336\325=\242Y\037\275U/U\275\325\005Y\274\332\274r\274\300\030\n=c\362\030=\326\316\030\275\341\220\250\275\256\006\007\275\303\243*\275\305z\334;\177\333\256=[\014\271\275[\207a=\177\025\232=\206Z\004\274\210j\241\275|$\265\272\307\267g\275\004\010V=I\313r\275\224.\245=\374\231\207=\365\205\256=UU:\273q\315\234=\237\005\230\275Y\354K\275<\344j\275\271Sd\275Y\204\303=\301i)<T\221O=6!]=;\362\311\274)\247N<\022\201\333\273\330\027\207\275\232\340`<`r\253=1\344\314=\021\322\000=\247\0162\274J\327\316\273\237\371\310=Q\314\334=\000L;\275\272\276\254\275^\304\252=\256\367\313\274\253\340\240=j\201\332\275P\250\264\274L\363P<o\210\214<\006N\275<k?\225\275\223oY\275V\255q=&O\266\273\315\323\217=\337p\261<.X\213\275/?\261=\202v\021=\347\300&\275|\005\343=\213\223\232\274p:E;\036\334;\274S\257\205=-p\202;\331\300g\275Vo\001\275x\3408=\3068%=\273\032.=\253\034\223\274\340i\251\275\256\231\344=\307K$\275\374\t\301=\353m\216\275)V\331=\221\234\306\274\224\220\304=;rj\275k\351n=]\314\377\274\206@\177=\234\2302=+\351\335=N\315f\2746\274\264<\200\031\233=\243\307\322=\250\000\235\274\237\021\234\2751\005u\275\377\031\242=qi\253\275\217\242\234\275\3567\341=\017$N=\211\267\225\275\233\023\213\274Mt\206\2751@\036=\356(\240=\003E\026=\000\263L\275\271\262\225\275\247\236`=\330\320\023\275\031\177%\274@-N\275r\265\362\274}}6\275\334-\233=\277\230J\275\247n\330\273/\275\032=j\220\226=8\323\227;=\033\"\275\030\305t\275\237\322\270<\322f\375<H\375\201=Q\221\265=\220\036\205=\357\234Y<&2\340\275\241z2=,c\221=\230\362d\275\022\330k<\200\272\265\275f\262E;\342\351\240;,J\203\274\340\331\317<\200\352\216\274XK\216=\275t\376<\233\037\311<h=Z\275\033V\343:\330\374\237\275\236\207\266<\272\367\200;D\223\367<\245(W=L\342#;\230^)\272\035\rZ<4x\203<\\tY\275\265\313\\\274OO^\274[4G=\026\373\316=p\325B\274|l1=\022\302_\275;v\324\275`V5\275\211\305\275\275\033\'g;\266\331\261<\226\326*\274\321\261\235=v\221L=\256\300^<1J\262\275*\357H;Q\353x=o\310\311=\350\216\n=\246L\t\275A\014\307=N;\215=mp\203\275\223\372\256\275\034\264G\275\010\006\233\275\301{\233\2754\236\'=\036K =[\363\345<\365=\325\275\362cX\274\212L\252=A\377\026;\tB\221=\221s\367=\343m\263=N<p=V$e;\233:\253=\234\262y<\226\260\313\275\262\273\261\274%/\241\275%\237[<\246\006\342<\017\247\233<I\023\020\275>\010w=\246UG\274f\322\251=bs\201\275\2533\313=\360\256\230=s\360\037\275\340\003O=\322M\031\275\334f\237\275\340;\300<\010\014>;\3706\247=\t\241\363=>\327\336<\371\2051\274\016\014\200\273<3\022=.\265\347=\306t\026<\200\ts;\343F\340<\203aP\275S\256\315=\322/\362=\273\037\305;\346\236~=\225\221s\2756\306\311=\233AY\275\274K&\275\367\206E=\374\0240\274Ua\347<\210\271\231\2755b\245=\377\234$\274q\270\336\274\257E\272<\367\340\352<\361#W<T-\242=H\277\033=\3524>\275@\370\211\274^\353\244\275A!u\275\270\3446=\004\332\211\275m\200\317=\307\306\256\274\215\337\224;-\037h;\263&\377;D\021\225\275\233\361Y\273\375^\260\272\"!\234\274\352\016\225\275\2018V\275\250\007{\275\361/$<\341\014\224\275}[\246\275V\016\221=\305\260\377<\207\365\325=\022\376\332\274)\344\251=\373\337\306<\261\357]\274\301\t\207=\274\013\270=G/x=\361+u\275\266\327\334<\352\365\314=K=\236<\\\351;\275\\\266\351<\001\270\311\275\331\226(\2755\321U\274\325\035g\275\004\374\216\275_\236\242\274\207.\213\275E\352\214=t_!\275q\256\344=gM\234=\3679r=\303\345X\274H\222\232=\251s\005=p\322\254=\3431\301<2\332\250=!4\227\275e\n\260=\332\027\014=\233p\304\2740\243\264\275A\227\203\275C\214&=\220f\025\275\023\265B\275d;\263\274W\301A=\007\271\242\275\210\271\331<\336\320\210\275\350\230\025<\234\221Y=F\031\204=\335\3059\275R\367\275<Ji$\275F7\234\275-\033\334=\032\332\'<\316\234\237\274\340\262\226\275w\037\220=\223\263\313=!\322\301\275\231\t\207=l\236{<q\342\260<\377\3251=\247\230\320=J\010\216\274\006l\237=\365 \204=S\307\336=\353\374\366<\033\221\321\275\215\034\277\274\354\215\330\275\364\271\356:\332}$\275\250\233F=\035\270[=\350\367\235\274\335;\034<^\376c< `]\275\333\307r\275P(\230\275\n$a=\n\264\321\274\234&\314\275;\302\360\275\336Xt=e\257r\275iN(\275\213\n(\275\246\336\035\274\315\200I=\217U:=\000\222\310=\314\375-\2754Z\233=\242\352m<\323\275\266=.b\224=\353\346\326<\000\365v=\361\036-\275WS0<\203\003\201\275 i\245</\227\267=\224$\254=\313\001M=H\245\350=)\314\242\273\"\237\263\275_X\331\275i|\312<.B\272<\305\2375\274HV&\274\234\310\223\275\235\301Y=\233\323\343=\254\367\314\275a:\225<F|\243\275\332j\275=\215<\314\275\307\233j=i\250\316\274P\000,=,\035\247=\362w\207\274\034\330\t=\302\032\203=%\367\032=|\272Z=\"-\362<j\336d<\017\221P\274\243\250\035<\360\327\243=\317>\255=\236F\253\273\366O\032=\332\361\005\275x\210\005=\314>\251<\275\302\247=\313\332\252=\344\345I\275\316b\237\275\365\022\324\274f0\357:\226\354\207\275\366O\266\274=l\350\274\206\002\201\274\377\270`=<\343\366<\217\354\225\2759\300#\275\344e\201\275\'5\224\273d\005E\275\342\221/\275\335\355\203\275-~?\274\305\"M\275\001\363E\275HMA<rs\201\275\3018\226\275\374\010\212\274\033A\320\274\207<\220\275$6\210\275\302+\\=\311\356\303=\230\341/\275\261\3628\275bz\335\274\240`\272\275\253\241\223=g^\326=\223\010\374\274M;\323=\344,I\275\242\"c\275G\026\311=\016\211\303=Y\337\273\275^\314\003=\217\010@=1\255&\272#\034\311=\024\274\003\275\316(-=I\024\031=KSI\273\245\367\303=`\223\024\274\201\273\007\275\252\350\207\275\305\250#<W\032\363<\304\224\216\275+%\247;>\305O<B\253a\275\323\317\300;!3\267\274\262(\020=)ER\274i\230\214<\2735\216=\273\315 =\326-D<\306\263<=lc\266\274\022ZD=9\370|\273\000\377\256=J\325b=|\334\n=F\000\344\273V\213\213\275K\267\263;W\251\301\275\220\031\264\273\362\355\002<\362BH\275\227j\n\275o]\232=r=\254\275\302\304\341\274\016$0\275*\223C=|\271\214=.\004X<\345\267\215=\335\241\347\274\036w\300=6p$\275\034W-=\003&\277\275\372\211\243\275 \265\257\273\204\312\211=\350\202\306<\253\310\177=\007q}=\256\242\"<_\343\234\275\275\212\005\2755R`\274\265\024\305=\221=\"\2757\245y\275\2643\026\275\316\t\271\275\260\276v\2748\215H=\203O\027=\001rY=\205X\025\274\352\337\254=z\267\002=\310,R\275q\213\306\275\340\035\343\275\\\250\357\275\241\215\244\274O\377\352=l\036\206\275\205\013\340<\006C\277\275`\334\207=\311\030\003\275\220\261\262\275\n\356v\275%\256\353<#\324x\2759\352\364=\357\350W<\314\267\306\274F\234\256<S\006_\275\247\206\271=\r\315\276=\233\373\273;A\032\337\274\264H\204=\225\017\337\2736\221<\275\265\350\224\275\317d\211\275\223\315\224\274\323\t\344=nZ\177\275\350/};#\362\233<\3362U=e\223\347\275M\335\273=i\304\216\275\032\202\234\275\036\247\031\275\033%k=^\376\231\275I*\237\275|\2454\273v\247=\274\n%\251=8\3407\275\024*\302=p\343n=,U\255=\353hW\275\226\020\200=\\\344m=\010\203\321\275i\301#=Q\375\322=\215H\216\274\016EG<`*\314=\020\302\'=\035c\230;\2544\212=W17<\314\007X;\311\342\225\275YU\016\274\224\261\313=\254\216\221\275R)i=\001\243%\275(\236\340=MH2\274\"\302\003<\t\375\035\275\221y\302\274L4\240=\336\314\234\275\354\253\325<Y\312\032\275\021\033\254\275\232\037<=\202L\200\275\226[P=\254?\312=\341W\204\274Tyf\274aI\211=v\335\217=k\216S<\324\033\267=n\214%\275\024\307\204;_\222\350=\300RX=\260\331\003\274u \331\274\230\020g\275\341\223\023<\367T\230\275\204\267K=\226\211\367<Q\334\035=X\374\031\274\265\363\202<\361\262\256<\005\265\037=b\364c\275#\224e=\301\362|\275\351\254\366=[\372z=0\211g<\204\362D\274V\312\014=\233\312\205\275O\331L\275\376\032@=L\\\207=\035\333\250\275B\377o=z\325+=\217\333\305=I\301\344=;\365\316=\277]?\275E\'\236\275K>\275=\227Se=\1770f\275\030\241\327=_\035v=\255\025\251=k\212\020=I\345\326\275_\257E=\3712\370\274]-\370\274\311C\376\273\367 \226\275\307\276%\275\0146}\2758\363\237\275O\343f\275\020\2119=I\363\233\274\034\r\342;;`\220<\342z\365\274R\317\232\275\177\017\330=vz%\275\305c\235\275\216@\n=G\303\257<i\301h\273vn\312\2753\32599\255\003c=\247.P=\271\013\220=\200\325\251=\240W\235=C\214\221=w\201\341<\365\265\205=\320\252\024\2753\245\214=]aa\275\271\221\202\275\375>\356\274G\252X=\255\010\333;\214Z\277=\377\246\302\270\310 \020\274\277\0023=\271\\\240\275\251\223\033<\341\360]<\310;\323\274A\027\241\275\325\335\367\273<A\233\275\244\312\211\274\217\2137\2756\003]\274\312\3421=\367S\325=\320\343\240\275s\026\247=\217\037@\275\364\361d;\326\371\243=Z4,\275\323\235_\275\355\330}\275\006\001z=4s\225=k\"-\275\323\236v\275r\277\326<\275\373\312<\367i-<o\277\n\275c\344u\275!\365g\275r]\325\274\360g\321\274\304\n\027=\177\235\200=\343j\356<\231.\250\275\000\351\216=\3005\312\274\351,\361\274D\177}\274\2039\326<\355[\210=d\273\306\275n\211\203\272>}3\275\375\224\322\275z\223~<\353\356\200<\215\010\233=\227\300\242=\372\334\261=U\020\027=%)s\275^\320\302\275\325D+\275\'\364\322\275x[\033\275V\033\265=\257\325\217\274\005\277\231=\270C\333\275\343\333\216<bS\334;\252sS;\200\341\246=\256vI=\326 >=\200&\357<\317\302\005=>\275b<Q\264\225\274\253\206\243={\342F\275\312B[=\266q\2049\035\001j=\212\272\235\274\373\332\360=w$%=U\2326\274\016\233S\2750\036\204\275\004\300n<\302\214\231=\252jA;X\271%\275%n\326\273\311\020\232\275L\232R\275^\362\\=tR\351={\'$<\033\026\214=\257\004_=\301n\270\272\350\235\315\275\322>8=\204\\\215\275_\202\224\275\260x&=}\232\251=\003?\227\275Ib\244=wZ\312=_`\232=\345p\221\274\027@\222\275\352\033^=\226\272\360=I*\032\275i\341?\274\216\205\223<^J\236\275\004\223\244=\021S\345\272\304D\006<vH\225<\221\340\242=Q$\223\275\226u\316=\260\020\344<\2010\302=K\207\225=\360^\330=\257D\335\274u/;=e(\334=}w-\275\375\315\273=\376\367];0\311\006\275\254\377z=M\225\210\272T\025\256\274b#\361<z\256r\275I\200\261=8\265\225\275\230\376\201\275\374\310:\275\264\354\020=\277\245\000;\035U\177<-z1\274\326\247\201=\203s\321\274\373J\241=\376\354\275=\177H\277<;\014\230=\203\352\224=\022\'%\275\202\232\351=;\262\212=@8\340=\312Ea=\370\256\225<U\201\036\274`\211\335\274:\203\353<\326\177\334;rL$\275\323;\214=\"\006\213\275\366P\202\275V\316\027\275aU\253\2745\270V=\314i=\274\227\274\323\275,\246;\275\356\227\353\274\014\262-\275\300y\004\274eD\263=\310.`=N\237x=R3\003=\320\n\215=\000\021v\275\366\216=\275@I\265\275\374#\256\274\337\261\203=]d\211\275C\366\221\275\254\230\326=\263\276\325=$\316\232\275q`\335<Gi\212\275t\n\022=\252\356\235=\347\375\310=\322\220\375<\357\307\255\275\2727\200\275\203\016\345=\357\217\234\275\321\224\350\274\251\\\007\275\247D\020=\253/\024\275\013?#=\222\370N<\022\355\231\275)4\315\274\020\202\324=/\227\230=\232P>=\223\315s\274^\372q\275\032@\342;\235\036i<\005\301\246=\367(\331\275`\277E\275L[\315\275PaF\275\\\345\320\275:\370\351\274\372\020\233=B\222x\275\306\202f\275L-\002\275\206ZG=~\226\003\275M\366n\275!\314C\275[+x\275i\021\265=\213\037\226\274\331\347\302<\217\004\204\275\005@\307=L*\367\274\214hX=\033K\351=\223bs\275\373~a\275\203n\014\275\005\370!=\263\246\013=\237\002\345\274L\373\254\274\206\322\301\275V\362\273=\252\0274\275:\344\210<\253\273\341;\004\240\334\2757\270\225<\327\326\214=\350\316\017\275\371\204\261=\224~\334\274h7\256\274\336\027:=\025y\274=\030m\334=\355\304\220=z9g\275\306 \263\275\315\236\010\275\221\014\002=\322\254\241<7\364`\2753;\232\275\243E\"\275\363\367\202=\'\030\267;\202\257|=\333\236\224\275Gr\264<UC\314<\366\000\016<\244zw=H\206\222<\270h\221=\262i\301\274\226\027a=_\025\322\273\245\321\216\275\272@\335\275q\222\272\275\033zR\275\2332h\275DM`={\304\207=\010\010\355\274Ls\222\275\254\374\327\275/\201\334\274\223g =Y\221\216=\327H\212;\014\272\340<\001\350\251\275\342O\033\275\321\233\250=\023\230\213<r\0336\274\236\376m< 5\316\275\236\310/=\262R\325\275\343\320\322\275a\313\326\274\313-[=[3\307\275\265\357\007<(\005b\274A\337\223\275\333D\302\274\257y-;A\206\230=\036\357\027<\t\354\362\275\214#\254\274\351\220q=\242!\236<\255\340\315\275\257L<<x\300\321\274g\017\276\274\007P\331=\202e9<\313\250*=\300\243\206=\240#\013= k\243=:\026\350\275\022\022\314\274\336\202+\275\037\216P\274\016\r <\014\314/=#*\214=\021\214\236;\310{H\275\243=r\275\304+\243<\014\242>=]\351N\275\316\252\327<\344m\331<\370\261n\2724CZ\273\'V\300\275\246\327\344\274\231B\036=\331\010q\272\234\273\257\275\241\267\355<\241[B=m\277\361\274\225v\326\275$z\342<\025\336\020\275\037;^=\205J\007=k\332\274\275\220\222\225=$-\253\275kG\301;d\265*\275\003\261\204\275\360\347s=\257\2668\275\034\000\312=:\252\206<\201\250\336=\204\023/<\307(\320=5\370l=M\271\363\272\355\241\316\275\270\341\245\274\267\350\335\274\326h`\275a\021#\275\367\353\306=\247\357\243\275#w\242\275AG/\274s8!<|\230H=\267\323\310\275|\023<=\005\3650\2745\210}\275N\356\323\275X<]=\262X\202=\236\332\350\275S\005\374<\234\332n\275\315%y\275\344\207\215\275 \017\370\274c\302$\275\275\rb=\246=Q=\360\354\204=\212\033\306\274\'.\310=\356m\206\275c\315\016=\004\234\243=\211B~=ix\336\275^\260\205\275\017\343\007=\3354\263<\220\316\005=bl\217\275\361u\224=\321\370\'=U\001~=l#J\275H\220\252\275\365N\247=\206?\t<\351\363G<\236\002B\275J\206j;\210)\214\275k\321\026=2\357\323\274\226\230\205\275c\024\270=\005;\223=\251\t\205=]\261\316\275\245^\024<\344\017\003\275:\252\326\275u`\004<\357\270=\275p\027\321=\302\241[=\213|\016=\301l%=\232\326\215\275,\252;\274\317\245\336\274\245\360\316\275\300\201\227\275&\271p=]\021\244\275\226\255\n=\031g\304=@\252T=\300\277\026\275\361;A\275\'\212\210=\2634\n\275\261*\030=3\202\\\2746\3717\274<\014b\275vm\202=M\023\331\275\231\317\246\275\374dS=^\320\200\273$\241\203\275\332\252\027\275\210\2233=(o\027=]\276\312\275JY\232\275\343Z\257\2753\020\002\275\2010\207=&4|\273\327P4\275@\022z\275Gh\232=\227p\266=\224\243\230=5\272&\275N-\371\274tQ\352\275\000\364\267<P\250\353\275)K[\275\277M,=@\0259=\315\325o=D\220\364\275\2371\004\275\353\3415\2751\003\237\274p(\025\2759\202x=\001\255\340\275\352H\243\274\251\253\326\275`\231\353<}\204\326=]\256\333\275\217\3203\272\317\276\230\275\365]\311\275g\310\273\274\271|\241\275#\350F\275\357\271\203=E\002\236<\353\324\344\275\335\260Z\274M\031\232\275\371\274\"\275z\214\304\275\023\217\241\275\340\002\017=\"e\243=\035\177\246\275\243}\230=N\317\224\274?\027\227\275i\323\243\275\236g\336\275+{m=\016>\226=\265\031>\273\245\2002\273\232R\255=\226\004.\275u\206-<9C\216=$H|=n\263\204\275\034\334\232\275\321\035\023\275\346*\355<\350g\221\275\004\234\340\275\005\027*\275\353\315s=8>\021=\255\264\002=L\016\241\2756\274\027\275\303\320q<<\217\375<x\316#\275s\302\327\275OF\215\275k\211\204\275Wph<l\365\031=4\321t=\035\200\210<\360\343\360\275N\246\203\275R9\'\274\305\330\003=\030\201\311\275\346n\003=\021QQ\275\325\031\323\275\314\324Y<i\236\255<p\223\204=3\304~\275y\373\013\275\250\326L\275\241x`\275\360\346g=\024|\001\275\3061\327=\342\250\205=\206tn\274R\311\330<\302\035\013=%\300\037=U\032\306\274\257\311=\275\317\t\337\275:\322\272\275#\331L=H\241\372=\017\267\257=\026\366\224\275\304N\326;\246\367\376:\023\313\244\275\2368\'\275\315Yy\275\333v\031=\210p{\275?\276\237=E\022\303=\227\302<=\006\266\207\275d\016\327\275@\316\275\275P\313\022<\250es\275\360vZ<\025\223J=\324Z\351=|)\236\273\310\250p;\204\234\215\275\204O\343\275\265\227\262=J\317\255\275\203\026\202\274\237\323\233\275\2235\272\275q\255\213\2759\034\261\274;\004\334\275\'\r\213\275\2414\026\275\0337}\275\272c\225=\n\376\243=\t\337\272<\"\004m=a\265G=zo\340<\245\202\327\275\320\2352=\251\232\212\275\"}8=\215B\261=\357\356\351<\217\207\205=\311\322N\275\327\210\320=\370\377\272=\357#\236\275q\3315;\231bz\274\tO^\275\013\226\177=h\336\251<z\t.\275\177]A\275\231\354\225<\371\213\313\275\023\240\205=\351\367\200=DJ\226\2736X\032=\364\225\035<\001E#\275\250\221\037\274\254T:\275\250\357\311;G\245\311=\3577.=\347\241\362<5\350;\274A\325\265=u\367@\273\375q\236\274\010\347N=;qK=\236\243\257=\223GQ\275\245\241\313=\027YL\275\253v\250=\016\343\323\274H\353\016=p\322\234<\rp$\275?1\221\275\276j\327=\231C\274=\004\327@\275\270\336z\275\351\3240=\213n\243=\326k3=*\304\013=t\363\260=\316\034\343=\2065\323;\365\373\310=\020\006\356\274\351\031\r\274\027\316\342<R\305U=f\350\223=\341d\314<3\375\247==\242\262\275|\315\253=\346\304\310\2742\263\332=\360\353\343=m\212\367\274\203*O\275y\214\234\275@K\262=\331\210(\275\225\273\200\2755\247\242\275\305\347\254=)\220\321\272Z\322\231=\370\357\305\274\233^\237=\377\357\230<%\302\241=y\277\226\275AL\244\275\301[\215=\241\031i\275\323DP=\371\030o=K\035\013=\tj\265=\365+\205\275_\222\024\275w\211\313=\355\332T\275\256\357#=\264\nA\275\273\321\324<Ri\240\275\002\005>=\034G;\275+\337\007\275\250?\203=Q\324\220=\357\216\275\274\231&o\275Q\030U\2750\300\022=\351w\212\275zg\262\275\356\230\215=\311!\"\2755\352X\275_\203N=\231\301\316=\375\371T\275Z\263N\274\020\325\014\275\010\330\026=\3232W=\216\2449\275\343\311\236\275\300\376\250\275U\276\024\275\231\246\245=#h\205=\320\354.<\007\241\352\275t\033\255=\014Mw<]\375\003=\301\355\017\275\2224\217\275\324\307\240\274\240\373\244\275\202\265\367\274\361\230\317=t\370\356\275\215f\243\275Ye\300:\241\274\302<\032\362\277=\247\201\236\275}\360\010\275\337&a<$g\277=\253\325v=\204\245\177<\271\033\241\275\nx0\2756\231\035\275\376\347\026=52n=0\245\244\275K\362\304<{\017Q=\371\211\037;\352\032X<\010nR\275\245\226]=\270\270\240=P\305S;G\266\204=4Z\265\274\223\227\300\274\224,\212\275\302p\331=\tG}\275@I\234\275\367\222i<\017\375E\275\335\217:=\272\254\354\275`k\306=\303\275/=\254\372\314\274\307\211\017\274\236\016+\275\240\341\215\275\350\330\323\274\365\221\023\273u\356$=\271\263\031=\325U\232=3\025I\274<\224\203=H6\326\275\261\'s<9c\222\275\364\332\353<\344f\216\275\256\240\016\274\320\274z\275\000\213\341\275\'k\323=\365\017\264\275\2674\265\275[TP\275\265\373\202=%\034-\274\242\234\223\275_b\234\2751\230\243\275\247\027\371<\276G\350<\020s\261\274\364q\234=7a{=\217\207\335<\017\376\033=Eq\351=:\246;=F\026\244\275\364\255\330=BP\336\274bD\000=8\320\016\275\206[\"\275O\272c=\227\360\312=\205b\264=Q\355\250\274\210,\215<\025\325\245\274 Ik\275(=\247=\035\376r\274\340<,\274\2626\206<\201R\271\274\277cD\275\305\267\325=\244\234/\2754\250\346=\370&t=\207L\214;8\256\034=\177f\235=7\203\310=\337\351#\275+%\t;\366E2=^\347\321=O\230-=\036\201i= \360\031=\241\032\230<\244\264\241\274\344\327\231;\321S\360;\313\226\272\275\024\331)\275\307z\345<jP8\275\216\257\200=\362\3240=\303\276H\275\001\232\340=\245\345\312\273\321M\213=\210c\201\273t\263\233\275HJ\030=\363\304\226\275L\230\235\275Nl\354<\255\214\202=\323\277\037=\037H\304<\325ji\275\224\226\207<\243\375\264\275\025\235;\275B\254-\274\010\244[\275\312\025\262=\375P\225\275\010\311\221;\323#\032\274\245*\261=\330\312\274<\327\"\030=\2620#\274\345\0200\274\003\243 \273\r\023!<\376@j=\3572\002\275\353\t\001\275F\202\222<x\346\022=\202\377o=y\377\322\2748\226v=\313\337\240=5\266H\275\022\215+=\000\366%\275Q\\W\275($\003=\3221\304;\370\004\003=(8\321<\3128\230\273\t\373L=\343\317\245\274\203\302\010=\343\013U\275\262\341a\275\215\'J<d;\"9\001c\036=\rh\202=W\240\267=\2718\037=\022\356\267\273\270\342\304=\323\213\205=\035Dx=\376]~\275\335\321\024\275G\364(<\031}e=\030u\212<\t \330=\002\324B\274\355\033\340=b\340\322<\177\200\330<{\272\017=\027v\256<h\222\312\275\2343\262<\310\332\225<\251<\345<\340\230\206=j\024\334=z\306B;\206\377\021=\201\222\302\275\345\037s=\272\310\213=\315\017\005=\026\216`\275\206A`=\263\007\217=\032\237\214= `\263=\242\006\237\274\261\351.\273=\270\317\275\177a\303\275%\205\307=\375\302\261\274\336\335\177=\214\024\224\273{\033r\274\013\027\026\275\247W\034\274.\275\201\274\241_\271\275q\372\230=\253 \217<\177\361\354<Z\372h\274\005\256\021=I\177\335<j\243$=\336\307\000==Y\214;!\215\336=\rZM\275\'\026\211=\251\304\334=\224\006\256:K&\246\275\031\364\032\275\025\225\206\275&\333\025=\354`\010<M\037\205\275Qj6\272\010\306\022\275\320?\203\275R\211\237\275\302\247\241\275\2570\311=,\213\245=\010\377\223=\236\352\211=]=\300<G\032V\275\010\205\025=\337q\241=8C9\275\316E\345;\344\022\211\275\375\232\341\275#5\250\275\300W\231=\230o\372<\027D\303\274w9;=2\320\207\275\232vs=\225\263\312\274\355\266\306=\322%\322\275y\244\321\273\340\306\226<\360\363\224\274\026f\223\275&\342f\274M\220q<4\302\217=\2466\305=\245\271o\275$o\223=1\332j\275\205\233i\275\352\246s\275\027\031T\275\316\266\230\275\2439\226\275(\rv\275\023\373\201\275\377\006\307\275\346\261\322\273|%\\=o#\006;v\241\030\275tM\331<\361s\206\275\352\330y=\265\346y\275\005\330-\274B\177\"\273\377M\321=YH\330=I\204(<\323\177l\272\357\232\202\275\266\215\341\274\227\215\211=[\277\354;Z\274M\275\242\255\036=\001\344\244={\213\215=\022k\027\274\241.\236=\25756\274\305@\250\275\342\275\311=n\224\236<:j6;EW\231\275\016\266\216\275i\315\205=p\301\221<\314\3677=\350D\200\275\251G\345=+az\274\010d\325=4\034\205=\352\267\232=\277\231\256\275\234T\'=\223\220\017\275nY\377\273\203\334L\275\334z\257=\336\367\353=\335\251\267=dd\220\275\267W\242=\371\315\377\274&\263\300=e\221\251\275q8P=\023\250*\273i\200\225<\277`\345=|\311\350=Rr\034=\211j\222\275\3146\225\275\357Y\010=[\3334\275\235\263\263\274\254)q\275\035\263\202=\361z\226\275\227\243\214\275\232\344w=\202\377\251\2759\342\324=a\214:=\\]\237=d\367T\274A\254_={\301\234<+7D\275n\310\014=]py\274\343\037\036\275\177\t\264\274\307\2360=]\245\370\273~}\244=4CR=\336b\277=Es>=\342]>\274{\224\251=\327\220\026<F(y<t\017.=\007:d\275\232\327\226<w79\275Z\335\221\274\332\335Y\275,\315\226=\354\010\260<\334C\352<g\266\023\275\007\342d<>\210\231<\177iS\275\177\241I\275\013\322\376\274\336\240\311=2q\333=;\017\312=\367\rk\272`\315\006;\001u\'=\336\225M\275\245\030\233\275\036b\223\275\334S\241=\214\353\276\275\225\004\325=\360\337\263\274\342\020\271=\206d\274=\263\344\261;M\245\010\275\313\347;\274\177\372\312\275.z\211\275\356\215\212<8\247\002\275dg\215<r9r:\017.\214=O\030\306\275Q\275\371\274\265\3728=)\355l\275\0028\336<\256(L\274\320z\257\275\237%\314=fn\\\275\366\315k\275\272\202\261\274\335\214\215\275\317W\371:\020H\351\273\365l\256\275gN\035=\333\303+=\304\263\302\274\372\263#=\362\371Q\275,\022\277<P\224\321\275\371}\264\275Y\035\314\274\254\342\334<\367E6=\347\233\360\274\313\272\203\275\013L\001=\t\373\200\273\017\254\246\275\361\177\267<\031n\222=\337\346\371\274z\020)\275.\260\214\275\3643%=\315sH\275oA\373<\'o\315=_\321\204\275\n\202\240\275\034\231\037\275\355\250J\275wK\036\274\277\002\226\275\212\214l\275(<\361\273\343fy\274\274\300\224\274p\310\265=t\256\262=~\357R=\323\034\235\275\244\024\265=(-\320<\343\327\303=\223C\312;$\n\031\274\223\300!=\301\365\003:\346\344\243\274\311\272\025=\3153w\274\0014\204=;\014\341\273\366\'\217\275-\306\227\275\034\327a\273\2208::\2200\263\275\322}\354<O\037i=V\234L=hnD\274\316\225\313\274\343Y\251=\211\243\306=\"-\221\275Zz\250<\341j\260<(5\255=%p\372<V\n\244\275)\025c\275}|\201<@\224\252\275\241\026\207\275\006fg<\013\341\257:\323{\247\272$\254\010<\021@\242=K*\027\275\035\256R=\326\242\036<\241\311$=\367o+\274\241\036\'\274\305\241\270\274T\300\021=s`<=\274\251\236=\362\037d=\216Zw\271C\361\025<\017\"g\274\324\324\207\273\013\034U\275r\351\027<\274\272`\275?\272O=\342\007\257<\327\271C\275\306\'\312<\003\314\226\275\244\216\214=U\324j<L\315\217\275\211\014\263\274M\'%<\355d\200;q\n\357<O\345\202\275M\237\245\275!\315\271<5\007\261:\371?u\274\010\312\344<\346\326\313<\304\023\202\272\265\350M\274\272\373\236=\025\364\231\275|\247\224\275\026@\236\274\330\252\204\275\3533\256<L\366\233\271\255\301\343:\336]\253=\257\001\210\275\\\303<\275\320\354\227\2757O\342=\376p\006=\361h\n=\213,\221\275\273\340\304\274\350\203H<\353+[<\327\300n\274\237\241!\274\030\267,\275\316z\275\275K\374\270<\306<U<\031C\222\275\301\342\304=X\302\271=\034T\203=LX8=\275\177w;\251\236\262=xj\201\275\243\232\212\275\221\373\243\275\214\235\240\275\2030{\275,\033\275=5\274\232<Jx\263<\345S\213\275\217G\303=\264\212\037\275\211\020\265\275W\251\255=J\331\001\276\005\223\307=$\227\323=Al\264=\315\333\370<\242\325\261<t\241>=\200+\257=\213~F\275\263\2667\275\261\244X=\373\2512:\014\003\361=q\233\233\275\327k\303\275F\252e=\363(4\275\304?\0379\362\324\247=\354@\037=QI\342\2748\031Z\275*p\221\275\277\345\357\274n`\272\275{\'i=\367\016<\275\355\004`\275\315C\240=\346\035\250\275\035RF\275%o\214=\271\336Z;=vw=\366\320\210\2752\277z\273\361\0022=k.\207\2751K2<\201\000\243\274\361\250\273=\274Z\230\275\034\t\234=\017c\262\275\032\202\264=C\351J=\251\302\244\275y\364\271=\027-~=Tf\211=\037\'x<B\232w=\366\005i=\035\037\374\274\320\222n\275cd\200=\207\276\"\275wo\345<\266b\201=\234\230.\275\014\323\201\275\251B\252\275x8\353;uVg=\313^\365\274C]\300<\222E{<G\373A=\033\374*\2756\362\307\275\004Y\212\275\254\320J=\246i\277\275q\302\210\274\342\356\340\274\2775\310\273\r\346\252=\372\270{\274\347\307y\274\233\222\331\275\003\001\247=\233E\217\275\026\355\272\274\335\313,\275\340\347`\275&C4=\017\215\254\275Ue\017<L\323[\275H\201\021\274T\326\214\275\275v\035=6h5=g\365,\274|\333\212:\325\025\207=\201\323\330\275|\216\234\275\206\340\333<\242\344\261\274:xH<\336?\246=\236\303\214<\325\317\265=\016T\233=\034]\351<\343y\016=\201\020k\275+B\226\275\362\253\276<\0263S=\325R\217:\007$(;\340\335\217\2744\234\306<Sp\314\275!\363\304\275\224+\337\275\353\217\024\2736I\342\275\222\336\034=8\341T=&\037R\275HS\t\274\277\367\314\275\316\336Q=q\352v\275\202`\221=6F|\274^\345\317;c\362Q\275\222]\247\275\004&\310\270F<@<!\214\345=\006\361\204\275\226\232\323\275\01077\275\025\350\014=\262\225\263\275\252\204\373;\301\"\005=\340\212\216=\211\330\020\275\331\211\237=!\355\201\275\014\275i\275\330\261\222=\207N(=&[\342:bL\273\274&\256\345<(\320\232\275\000\265\276\275#\tL\275\253\316\237=\272\362-=\177\000\232<7\204I\275\363\222\322=\235\242\262:g\n\363\274oo\325=\300>J\275\215\234a\275\345\342F\275\302\265>\275>\030\333<\301t\241<\365\030\213\274P\302\266<\0170\030\274\003/\\\275Wz\244=]\177\344;\027\346\300;\360\322\237\2750Q\250=\203\372\034=\323\225\247\275l\357w<\372qV\275\203\001\261\275\tW\237=\251\027\177=\303\3264\274\241\336&=\335\005\240\275\230,\241\274\374\203\207=7\302\206\275\203\\!\275\373\242;;\270\255e\275@\251\004<9s1=\243\262\235=dd\231\273\257\341\354=\034n\250\275\317\340\240<&\361\350<\363]\241=\321\267\273<\220\035\367\274\347\240\301=y\260\376<\346\272Q=\031t\264=\311.\252<X\014\020\275ep\252\275\312y^<\202\240*\275\241\312\024=\224\371@\275\031h\254=\353\341\203\273\342\255\207\275E\360\266=:\013u\273<\356\227\275\357\226\244=\034\025\202\275\215\262\217=0H\026=\006\254\335=\002J\312\275\354M9<\3567\266=\361\340\232\273\364N\244=\177f\253\274\236\213}=\221\t\237=\000\3210=\335.V=}]\256=Q\303W=\345\275\266\275<\244\350;T\200\271:O~\367<YQA\275\363\271\370\273_\355\205\274\372\t\243\274/\2233<n^\335<Q[<<\313\325\321\275.\247\226\273\331W\365\274\364h\330\273\037\257\331<4\031G\275#A\346\275T\222\276\275\250~\031<9\314\013==\3209=}\344\204\275CGh\275@-\032=/\005\023<I\035\303\275\377\013\363<x\272\203:R\177%\275\t\366\276\275\n\n\212\275\027\362\277\275\3344\246\275\270|\033\273\307\252\014\275\302\302?\275\330\033\306\275\026\233\203=\252M\016<m\334\214=D\225s=\334\221\326\273y\214\'\272p[\211=k\027\235\275u\307\324\274\232\375\236=\3445\004\275)\017\225\275\332\346\221<\204\311\245=\212\323A=\320\324&\274Lyg\275\321\361\213=Y1\277;\034W\250=)\242e=\016\237>=\217E\300<\203=\224\275\272W)=\322\005#\275|y\271\275\024\ns\275\266,\370\273\370\023\277=\342\244\340\275\245K\253=\363\322\216=\206\256\303\275\315a^=\222\204\216\275\352\245i=E\254\267<\234K\266\273\263\322[\273\352\205/\275[\\b=\313\004\257\275).l\274\341\363\261\275$Q\272=\216\233\210\274\333<\235\275\325O\354\275\241\357\331<V\340M\275\314,w=\005\252\241\275\244\244\277\275\235\260\000\274\030\216Q=\022\372\211\275\312\250V\275\344\246d=\263o\233\275\353\247\243\275\321\312\226=\005\237\244\275]]\037=h\327\311\273l?e\274*+\250\275&\275\276\275\036\213\374=\253\254\026\275\036]\264=\001\2016=1\371\221\274\247\004\033=j\347\265\275\305\205H=\377\025l\274l\327\215=ju\255\273\365\010L;\301\223\317\275\2171\353=\"\3276=l\352d\275;4\236\275\344\203v=,\251\230\275c\251\355\274\364\230\251\274A\353\242\275_\315l\2744l0=_D\207\275\013`\336\275\363\260u=\2136\317=\177\361s=\340\351\325\275\010_2\275\353\346\277\275|\034\222;\266\315\\\275g\337\231=\223\317\017=G\344(<\177\207\177=6\007\232=G\216\347=\327\210b\275*\030\250<\350.\262\275\007\"N\2747\335j\275E\034\226\2740,\n\275b\213\321=\321\262\036\273\304\3058=<-C=\354q\235\275\206[a;\341\337\353<\377e\341\275*l\205\275\241\331\245= \333\240\275\245\304\332\275B;)\275x#\311<C\235\036;\320zH\275\273\030\016=\303\377\210=\320\225\304<\225\333\023\273D\327d\273\250Tf<\301\021\017=\354\274\364\274@\224\215\274>7\263\273D\002\301<\367:\240={\017$\275%dQ<~P\303=\205\221\213=\332\251\346\274\271\217\234=\263\001a\275w\335\232\2750\334<<\307\016\266<#\204\337=\3209\241\275v\203\334\275\262\213\243=\306\270r\274\265\306O<\2762\251=?\305I\272\322z\016=\0162\023<{,\336\2749\361\224=\302\321S=\341v\215=~\370B\275\264\235\037\275\220\033`\275V\253\303\273\226\320\247<2.\276=o\361\242:\336\201\215\275\\G\205\275\r\032\255=\343\222\224=i\026\333=\003\261\327;Z^\032\275\350\244\201:~\356\270<\251\350\325\275$\010\215\275e\335\003\274!\217\222=\221\254\243\275\370\345\253\274>\243\225<e\313K\275\363>~\275\231\260Y\274\267B/=\'\013\314=X\264\301=\035:\364\274\237lG\275\317C\203\274\2505\240\275M\255\223=e\216\004:\247\210)=Q\"\341=h\323\263\2751W\305=\224\211\213=\332N\336=\267\025\222\275\312\274\313=|\217\216\275\332\303\260\275\242\177\013\275z\226L\275\311\016\227\275\'\314\306\274\264\323D=\362/\321;\362\227\226=\330{=\275\241\025w\273r\364\323\275\236l\245\274mC/;\343S\236\275:\221C\275\330\010\332=Z\317M\272\r03=#qf=\271\335\213;\016P\006\274\360\210\305=\243.\244=:JT=\245J-=r\007\352=N\246\230\275x]\213\275\260\013u\274\322,\331<t\377z=f\300\217\275\3472\212=D\266\345=X\221~\275\346\007\220\275\304\305h\274\3147\323<?.\351<\305dG\2747\007\265\273\230\275\325=\374m\207=\255\340r\275\017HE=GQ\313=\302A\324<\235\362\231=6r\301\275\241\311\315=\320\232\213=20\220\275hk\260\273\365\375\241=8\310\212\275\245)\222\274\313\366\343\275\373R \275\300VW=\034\312\233\275\235o\353\274\037nb\275\030\0135=h\000\250\274\370\275O<j\020C=\000\2411\275 \260\240\275:z-=\320\320t<\333\311\362;\374\233\217\274\262\230\253=\332\327\246=\230\231\265\274\227\210%\275{\017\200<\250\303/<yg\023=\275[\303\2747d|<\3622j\275!E\314\275\246\375\242\272\237\353\017=\313\033\021=\032g\327\275\353\230\226=]\370\217\274:\253\314<+\351\353;\002\252U\274\213:T=w0\253\275o\311\037\275G\251\250\275Y+}\275M\r[\274c\002F\274\247\212\004=\211;\260\275F\273\013\275\034\355j\275Ad\206\274\242\220\256;o\257\003=\207\242\207\275n\rA\275\340P\027\275\347\265\305<+2\253<T+\350\275R\002j\275\310x\344<A\257]\275\314j\324\275\205\355\316=w\323\277\275\356\244\313=l\277@\275\275\260E\275\371\361\261\274+|\212\274\203\032\333\273wQ\010=\373=[;\211Q\232\275\223\346<=\241\272\353\274\241\203h<\201\314\n<#\305\342=\253\276\010<uJ\014=j\374\232=@Y\257\275\272\007\306\2759\344\r:y\315\212=\263\210\033=\373\305\342<\260\224\261\273\231\266D\2757\217\365<\021\\\212=\277\210&\275\363\2777\275\326\303\327=\301\367\020\273z;\262=\3255\325\274\375\216\247=4<b=K0\366\274\346\277\200\275\n\276U=\033\320\207<\037\023L\275&K\005=7\000M\275\010\263\n<\266\352\351;\233.1=\304\353\247=\342\346\035=\243\202\364;\204\246&=\010Q\236\275\021_1\275\236\030\001\272\342\370\216=3\347\026=\004L!\273\226$\213=\341\370\234\274\275\365<=\323\333\232=c\274\321<\023h\333\274\301\375\252\275\005\324s\274\247p\366\274\304\242\235=\213\221\210\273\327\222\222=\006\177\250\274\253\234\243=\014\253\275\274\227\301\226=\362T\250=\023\257\234;Y\261|\275z \370\274\n\341\343<\253C\272\273\345\252\024\275\365<$\275\211yS=\262U\263=\3743\200=\303\366G\275\312*\272=\177\0177=\363\227\225<\317\202\322<\303Z\236=\232\0235=\361\324\260=P\271\032\275c\372\212=\202\254\332\27435>;\255\034H\275i\006\347\274`\350\r\275\216A$\274\216\231\336=0\010\002\275\0145\247<\327\275\022\275D\244<=\252\252\362=M\307\r\275\340\325;=&\200\243=^p$\275\030\344A\275*\230\220;F\035\206=\0368\256\274\314\352\275\273\214\273!\275|^\307=x\356\013=Q\374[\275\277\2613=%\261\002\275\317\371\325\275\201\3149=\033t\231\275\024}\255=\345S\203\275>\335\364=\346\206H\275\245\026\233=\302\356F=\033\037\257\274[\212\251=?\373\334\274\254\272$=\013\332\244\275\003\0204=\315\266\241=1J\331\274\221b\217=:H\210<\245\"\243=\376b\273\275\254\020\034=\217\360g\275\302\264\200\275 \'\260\274\305\225\302<\035\004\031\274\376\t\264=\265\300\326=B\330z=\016\374\226=8Rh=\304dr\275\225|\234\275\272\341\365=\266m\t=,\321\237\275\014{\215=Fw\360\274\205\0215\275[\245==IL8\2741\024\270\275\014\363\330\275\317\244\224=\355\2256\275\323\241\364\273\217u\034<G;\024=\274\210\316\275\332j\216\274NOu=YV\225=\302\224\364=x\025\340=\231\376\332=\3754\223=\230\005H\275\310l\233=J\311\316=\350q\232\275i\216\247\275P\351n<\353\002\236=_kM=\264\251.<x\020\226=\235\215\242=\231\310\333;\301G\021=\212u\342=$\030\225\275\221W\204\274\226s\010=\266\n\204=L@\210\275\'\272\252=\346\203\275<\266\023\343=\347\214\374\274S$\240\274\003t\210\275~\324\242\275\357e\314=\213\335\277=y\205~\274\023W\322<h\020\206\275\007aI\275?\312\010\275\312\320\274\274KW\260=\274\346\317=\242c\213\275yh\340;A\327\252=\026\255\376\271\237j\001;\007\024u\275\276\005d=\332g\312=\236\273\313=-0\211\275\321\274\236=2O\\\272;d:=>\206\326<^\021\021\275w\226\3249\306L\271<5D\016\275\247\231\316=\010\315\204\273\320G\013=\035\221\206\274\3646\201=\211<\237=\216\316\201=H\220+\275b4t<U\344T\2753\362\260=\277\017\211=\200\354\333=\215\350\315\274\306(\226\274\260\232\252=\\\3273<\027rl\274\3303\035=\214iz\274bYf=M~q=\017\277a=\263\337\377\274e\302\351=T\330\227\2755\200\334=\030\205i\275\276\312@\273\305a\244<\323\357\310=A\2261\275kZ\236=\305O\205;\002=Y=\375\320Y\275\003\275\271<\005\331.<fm\223\275\312\336;\275\020\346\372\274\273\326u=;\302#\275\306X\320\274Q}\321\275\300>\303\274E\377\370\275\026\267\215\2743\324\024<I\220\204=\235s\221\275\231\201\233=\352o\231\275*\357\246=\307\363\266=$\177\263;\254y\333=jg\206\275)i\306\274$\353\226\275&\353\213\275\355x\241\2735zL\275`\324\234\275\331\240\000\275\235\206O\275\231\202\232=\233\344\214\275\260S<=\013\207v=\322/]\275$T\217<\315\254\273=\014\006\204\275\236\t\230\275D/\245=\006J\254=\025\346?=t\327>=,\025\253\275O\350\256;\342\242\224\275l\363\257=\370\267\204\274\224i\230\275\344\014\322=\373+\352=4J\244=9A\006=)\226\210\275\251<(<J\260\230\275\264\350\302\272[\000+=\255\212I=4\256B\274/<-\275\265\354\362;\242\000\351;F\325\022=\364\346\220\2754\005\205\2753\234\337\274Z|q<l\250A\275yi\247;\006o\254\274\240o9\274sd\020\275\016O\r=8q\360=\2544\221\274\341PY\2755\233\002\275\370\234\347<\376h\354=\354\323x=\210U$\274\263\346\244\274p\251T\275RT\262\274!\363\241<\376}B\274\351\021\235<\235|~=\257)\231\275@\254K=S\0374=\222\026\322=\004\366\010=5\241&\275h\316\267=5a\247\275_?\275\274\024\034j=3\223\325=L\215N\274\326\000/\275\254\004\221\275z\236\243=\321\334\336\274\330\0371=\223\201\021\275\217\002f<\3014x=\003\335\202\275_\225\336=m\234\260\272\356\016o=[\223S=\007(\214=%\200\020<f\t1=\352\2005=\277K\273\275\221\000\226\275\237\025\253=\357#T=\234j ;\010+*\274\030#\3709\314\244\336\274\247\246\335=CM5\2753Za\275N\342\217\275\225c{\275A-\014<\330P\303\275\006,1\274\227\244\310\274b5/=IC\201\275/\275\271\275\377U\256=t\326\207<\245\363\017\2758\262z\275\261%\210\275\244JW\274w/\255<3\233\206\274R\256p=\303S\226=\214\376\r\275\205\253\205\273\340\355\315=\031q\353=\r\020\334\274=\n\035\275\013\323\241=w\345\313=\215&\315\274\001\230u\275\201\255\366\2742k>\275\312@\017\274_\200\231=\337\257w=\330j\225\275\207\277\330\2750[o\275`\211\025=\234F\223=_A3=\346\032~=MRF\275\345\037\203=}\010\021\275\017\313\226=\231/e=\204\266)=K\366\350<Q\216\276=L\355X\273\n(n<\233e\340=\213q\326=\376\244#\275\242Si\275J8\200\274\237\007\223\275\315\347\264=\335f\246=\270b@\275M\332\313\274\212\345\222\275\r\005i<D\336A\273\307`%;\030]\"\275\370\302^\275~\306U\274\257~\\<\213$\301=g\340\222=\'`\263;\370vn=\260:B=\305n\305=\373\367p=\277\037\244=}\226\240\275[C\225\275\215\r\345=\300\204<=A\2372\275L\330\240=\207\335\350=T\323Y\275\317,\323<(\3766\275\231\262y=k\212a\275>\225`=([\231\2758\327\267=\240\363\305<\r\362\253\275\010\006\226\2754\247\240=\266\353\214\275U\342\236\275y\200\013<\213I\214\275\003\252\322=\262\367d=\354\357\023\275\215S\212\275\322_[=M.\353\2735(\245\274e\277\216\275u\260%=\260\222\000\275\340\225\345\274e\253\216\275k\240\275\275Z\361!\274\003.Y\275\006?8\275\230\313\267\274\217Qz=\0339\311\274\355\352W=\200##\273\244\207\210=\310S\317<\353.\363=\376\312o\275\334\262<=\202$\321=\300\246\333\274{U.=+\3032=\036OK=\241\217\276=\014\252\004\275\376&\200=\247\025\344\275\344\177\224\275\307\021\203<_\000\326\274\006>\270\275\r\262\r<s\252X\275\227\254R=\222\273\206\274<\341\266\272>L\317\275Tl3=\332\355\315\275n\344\200\275\320\271\210\275o\337\213\275\202\276\270<_x\234\2748\304\252=\222!j\273\027N\260=<\234\322\275\034\247\217\275\230c\003=\200\017\032\275\243\231\355\275F\3302\275\276\367\260<\335E\020<\272oH\275\370:\214<\014\325\261\275J\202\037<z`\336=\245\364&=\034\356\'<\271\327J=Kp0=3\212\211\275\265\244\315\274\330\004\230\275\n\205c<\213\377\257\273\026\324&=\316\320\2317;%\025\275\2478\206:W\200\214=\r\241\300=\266ZD=\001\022\226\275\317\252\216\275\327\271\242=\364\005\247\275\026\230h\275\257\227\\=\t\330\243\274\374a[\275\211\351\234\275\030\221\345\274\232\216\252\274ud|\274|.Q\275\224\013\312\275\001\026\244=c\177\212\275\357\241\223<\311\252\330\2748\2528=p\340\373\274\364;u=\241L\226=\350\374\246=\3648\207\275\200\366\304\275q\347\215<\003%D=j^{\275r\376\220\275\311\376\335\2759FV\274\344\267\025=\313\300\264\275\034\315\001\274\372\004\256\275\021\2653=N\366\216\274\2579\271\275l\034\235\275Xs\036\275<\2660\275#!\315\274Q\375A\275M\324\211=\252i\007\275\254\005\302\275\305]\206\275U\231\321\275@)2=\003\321i=\026r\020<\306\024\375\274D~\204<\332B\223=\333I}\274[\253\033\275\035\311\265\275\375\340\232=\223R\356<(\231f\275\354_.=x$C\275L#w=\376\032O\275\177\317\340=R\260\265;\365%\231=?\331\327:\306\3618\274\320\267\217<\276\267\261=\323X\240\275\266\226\260\275\310W\254\275\226,\032<\341\261\342<-\026K=\367K\313\275\211c\300\275\250P`\274\272h\250\2753&T=\350\230\215\273\377\372\217\275\036\222\360<p\023T\274\'\347\327\275F\363.\275\016\377b\275(U\240=\320WC\274\375\266\207\275\362\232\230<\227\362\017\275\303jF=%\013\343\2752\204\343\275\363\002c\273\260Ga;\037B\227\275\336M\007=\233T\265<\334\213%=@7\320\275\3128\325;\326)\345\275\341\251_= \227L=\223;\207;e\263\n\274\260Zl\275I\2547\275/\300\211\275xx\301\273E\277\313<\315\004\222\274\334\006\256=\257\037;\273R\001\205=\305\t\302=\217\246\376\274Zs\206=N\206d=.6\215\275\206@\215=03\024<\325\376r\275\366\223\203\275\035e]\275\ts\036\274\247\250\215\272\317E0=t\320`=I6\224=\006\032!=\0010\222=ufS\275\274\210\330<\371\177\241=\262\341i\275\005\366\222=IX\233\275x\010\236=\303\315!;\233;\270\275s\277\242;\253\224\250\2734\021\352\274\303\020\240<\243y\303=\371\030\215\275\226\334\221\275\'\204\225\275(\033\214=\323\327\316=\265r\025\275\323\276\226\275\\\202:=ey\206\275N\013\307</Xn=\226\224\227=\241Oc\275 8\233\274 \215%=\205\256\276=#\216:\275DD\202\275\233\350\225\275\000h\006=\366\220\355<z\377\330\2745^ <\017\316\002=\030\006J=\207I\256<)\253\247=\350\\\245\275\357`Y\275\363`\274=\354\276P=\276\2465=\340\353\226\2755\033\321=\024\226\273\275\336\202\351\274\204&\232=h\373]=<\336D=\303\253q\275S{\263\274\205\233\264\275%\2026<\255\221/=\"\020&=hR1=\360\310\n\273\2026m\274/\341\343;\203\236\213\275\031\212U\274g\313\227\275\363\256\363\273\373\2111=3\343\231<\003\272\236=\231\354\'=^M\215=\373\034*\275G\363\225<\246\r\265\275I\240\027\275\231+\253\275\364\331\272\275\327F\202=2\232`\275\340\311\257\273\001\377><\"\367m\275l\222\221\275\257\026\346\275T\306\223=g\223\311\275\023\237\367<\207qO\275\300\373\215=\177\224w\274,\311\311\274\360\211\306\274\211\235a\275\273ia\275\n\247=={\250\t\274\246x\251\273\317\205\241=\023\357\341=^\010)<\000c\234=e\305\213=\224\3139\274 \221i\275Cj\257\275+\306\212\274\247\303\303\275\352H8\274f\242\231\275bp\336\275\037H\250\274Wb\210=\2407\247\275\212\021/<\375\306W\274C0\201\275E\376\\\275uM\332\275\210U\320\274.\"\021\274eg\236\275?I\244=5\305\215=\033\257\211\275\245\010\306\273\337JN=\225%\201\274x3\202<K2\202=c\t\034\275\377\r\222=\003\317f\274\n\353\373\274\223\370\302\275\327j\315=\356oZ<imK\272\021\320\314<\313\313S=\212\017R\275\024\221e=\033\347\352<#\303~=\0312H<\022\0275=\232?\006=\221\347\026\275R\037\236=\331\025\223=^w\345\275\234\235\237\272N\234\266:\276=J=\030a\201\275 \374\020\275,\177\264:\347\246\231:I(\016=\223\300J<\227\302\246=z}\226=\034\200l\274zB\220\275\020U\322<\303\033\212\275\243\242\362\274\246,\322\275\201U\231\275\t\313e\274\322\235\274\274\257\201\247\275\216F\014\275\242\036\364=Us\312\275M\035\363\275 Q\212\275\315\223\354\273_f\260=\243J\200\2756<h\274\222\030\235<\312\313\005\274 \'\232=\t\037\350\275\247\013\216=\001\314\334\275\334\212\322\275\037\315\204=\362\002\323=\016J\244;\030Q#=[\\]<\252\031<\275\264\033\237\275\211\22599z82=\353b\226=<\237\316=h+\323\272\2458}=w\270\314<\307\223D\275FV(==sz<\311\221,\275\227y\027\274\310\302\341\274sB&=\224\365\177\275@\243\330=`W\272\275\300/\t=m\302\252\275w\030B;#Y\'=\017`O=\375_\214=\361\320U\275\013\211\267<LF\247\275\0011\267=\033\264\213\275\315\255\263<mL\314=mW\323\275\217P]\275\032\036#<\367\274\252=2\260\214\275*s\265\273\226\253\027=8\205\252\2756\256\001=Vu\204\2755u3<\253\270\334\274\322\335\272;\240yt<\013{\364<\206\231|=\307{\n<>~+<\203M]=\016^\252<N\023\202\275o\321\300<\202cw\275\201\036\304\275R\004^\275\"I\330\274\217\302\033\275x\210\014=<\305\310=\243\233\330=2\262\014\273\246hi\275N\334\037\274\013\266\263\273\264Lf\273\342t\266\275\225t\267=\221\241\004=\361&\335\275)4\200\275\355X\"\275\001\231\n\275g\206\212=\002\010)\275\350\276\365\2738\0224<N\271\262\2751\216_\275a&\355\275H\325\367\274v\264\220=\240e\203\275\014 @=\3718\230\275,K\025=\305\256\232=\353\365\253\275\264\305W=(\300\305\275/\222\304\2741T\301\275l\215\267\274\241Z\237\275$\337\'=-\265\352\274a\274\255<\205\222\250=y&\274<z\205X=C\247\211\273^h\230=\177P\002\275@\231Z\275*\230}=\204\345\273\275\256}^=u\002\177=\241\265\222\275\236c\360\274u\361!\274\371\365\315\275\2063\265\275-\025\322\275\',T\274\326\370G\275\334\203\255\273\340G\223\275\365\206X\274\0224\020=\2370\273< \014`\275\376n\317<\177\327Q\275f9&=!\341\307\273\211\251K=+G\226=\236\371\020\275\250\236\311\275*-\374\274\302\010\026\274\226\314d\275u\274\030=\003\030\356\275~\3428=H\235\200\275\357&\222<z\037\212=\245L\311\275\027?:=\034@\353\2759\010\037=\237\240L=\037$\340\275\313j\346\275\034]\203\274*\254\302\275\331|\261<\020\"\224\274l\245;\275\234d\332\274H.\332<\310X\335\274\336\245\'=\247\201\307=\005\260\230=cw\\\274^\223\301\275R\\\337\275\022\311\234\2757D\205\274\204b\037<\266\025\000=\2543\027\275\316`\020\275\243\340A=\342\305\243\275)J*\275\241`\267;3\001\325\275\364\217W=\343\017R<\236\270\311=\253\253\232\275bF\233=\240\004\337\275\356r\267\275\346\342\203=\237\375\323=~d\223\275TX\016\275\243\363\247<\010\251\306=\365P\033=\216\352\356<F\325~=\240ER\275\036\354[=\256\336\306\275M\223\227\275\225\036s<\034\303\213\274Gi\215\274l\273\233<Ge<\275Q\034Q\275\003\371\253\275\201\301\272\2741\033m=\020?\343=\302\031M;\253&\312\274\253\256\314\274\202eY\275\033\\S\27498\335\2751\200\274=\310\240,\274\211\252\214=\377{\\=jt\327=+\\>\275H\360\253=\346<\336\273\023\313\006=\367\331U\272\315qH=\336\342\241<\033\2616<U9\360\274\376\325\372\274!\310\203=\020\004\216=\274i\244=&\256\267<\rd\215\275\214\3111\275\220I\267=\374!T\275c}\370\274\254\230\033\275\332\341\264\275VP\316=K\256\253=\335\304\013=\237x\034\275?\027\264<X-\222=\246)O=\264\320\220=\247\\\266\275\307\227\343\274t\245\336<\275\304\221\275\203\025z=B\365\343\275\274\312o\275G\205x\275\212u\303=*\263\245=\310\217\327\275\345\345\303<\360\031\220\274\026\010\337=\315S\000\275p\206\330\275\233%\262=^#\r=A/\304<\354\353\306=\206\217\266=\243\013%=\271\177\203=\240\020\256\275y\007\370\274\200H\243=6\034\334<\232\206\356<M\031\354\275&\023F\275\246Q\020\274/P\266\275m\014\307;\244u\307\275\327\212T\275\216\332\215\274\2415==b!\254<\243\337\253=z\222T=\217\207h\275\212\010M;\340\001O= \347\225=F&a=\037:g=\345\377\315\274\022\324\303\274\326\375\274=\205\314\370\273U\037\305\275R\346\234<\"\2014\275\272\021\327<+\311\320\275\237zX<e\316:=Sn\307;\236\377u=\322Z\327\272v?\232\275/\361y;_\217e\2756\255\275=\007\017\220=\205;L\275\030\306\342\273\177p\316\273\332Xl=\344E\234<\256\3524=\246\224\036=\303F\225\275\347m\244\275\346uz\275r\274\247\275%\245\220\275\227\254\034\275\023\3134=\010\023\000=\277\266\365<\007g\000\275\310\224v\2759S\022\275\273\307\302=|\0168\275*+\202\274\024\327\326\273\324_\253<c\016\302\275k\340$=\002x(\275\230\036\331\275\323KG\275E\230W=\261\366\257\275\207l\241=A\004\246\275\247\362\376\274\375\2657<w\224\244\274\314\265]\275%\370\232=\300;\253\275G\314\220\275\302\213\201=\362\177v\275\353\354\016=t\367\235\275\206x\032\275\307\315\210=\227,\323<\256\220\242\275L\320\344\275B\304\231\275a#\006\275<\034\004\274j\243\001=_\326\023=\352\240\261\274\212n\302\275\001;\002=\314W\367\274\326/D=\260g\023=\363\364m\274Z\035\265<\230\333\001\274\352\320\310<\234\241\216=\232\025]\275\014k\205\274\210\213]\275\374sI=6/\336;-\375\217=(\026\256\275\354\025\231=S-s\275\r\373\257\274\250\357\312\273\246\335\225=\027\275\366=n\305k\275\344F\253\275\267\016\016\275\243W\225=x\317\352=1~A\275gQ\255\275t\007\344\275ppF\275\317\3119;2qy\273\022\216\235=\212\200\366\275\341\203\221\275o\253\024=\345 \204\275\330\226\220\275\306\037\203\275\020?\210\274\231N;=+\265\320:\312\036\366\274l\363\340\275\2065\247\275y\364\330</\242\370=\310PD\275A\313\333=\223\033\255=j\212]\274!\272\201=\273\356:=U\346\361;\326\361\304\274_\276\211\275KW\020=c\320S=#\364\332\275\217\235\002=3\303\213\275\005s\320\275\200\363\270<\273\237y=\265\342\320\275\371\334\252\275\343\207\241\275\021;>=\016U\240\2751~\\<\360\020\312\2754;;\273\230}\374\275\034\353\264\273,*\216=r\323\342\275~\300]=\315\220\226:f\325\256\275\207\335J\275\003\237\335\274%\024u;\022R^\275~\007\246\275\352\3029=\026\330\005=\006\266\202=\230\217~\275\277\022\277\2739\314(\272B\256\032\275\316Y\267\2754G\307\275f\251\3119\020(\311=\341(\202\275\024\342j\275\225\237-\275\027\337\035\275.\235\234\275Q(\363\273\007Y\003\275\\\331\332=-\246n<\3205\200=H\364\272=\373\367\201\275\226Z\314=\211F \275\263-\243\275w\244z=n\tk<\315\322\215\275\354\030\361<\275\364\022\275\276\006\227\275\302b\211=j;?\275\332mI=\005\220\263=,\010\262\272\t\304\332;*3\227<\270{\013<\345\321\204\275+\004\330=7]N\274\367L:\274\254\272\3709\223z,=\3760\227<\030\372\202\275@\344\243\275\357O\351\273\357\300\221=v|\023=3\272\221=W\376;=\217X\235=\010\001\322\275;\355\223\275s\244\260\275\273\030>=\035.\350=`\337\254<\240\213\261\275i\257\325=\021\351\201=\267\341C\275\364\334\206\275kt\326<\366\233\217\2747\375\356=v\000\325=\372+\317\273\226\362\327\274\300\222\262\275\221\025u=B\342\225\275\025\261\036\274{0\320\274eYi\274J\002\303=\275\026\003=y)\360\274\260CD\275-\314\336=\266\370\200=R\215\305=3?\207\274t\210\347=\274\217\356=\323\027S\275\253\367m\275\034\315b\274\244\347\363=\255<\342\275\336C\n\275i2\263=4JV\275(\275N\274\201f\311\274\027\203%=UF\\<iE:\275\341\247Y=\374\026Z=\271|\242;\241\031\255<\203\341\231<\245\316\213=\021\307-=\036\210\336=\234X\004\275\tl\241\274V\035\025\275.\360\216=P\254\232=\370\355\315<\311\231\013\275W\035\214\275C\257\337\2757\340\025\275\211\2103<\364\263j==\227m<SB\026<}\024\265\274\222\215\032=;\201:=\211\372\315=\\\231\357<\031\257\303\274mc\213\275\353\"\013=\021\2733=\220\033\016=\357:E=w\271\000\275\216\267u\275\177kf\275\345\225%<=y`=`\023\000<\024\021\236=\031WU=\326\t\216=\033\020\277<\032/\337\275n\r\232\275\017l\205\275da\247=\"\363\220<\014\031\204\275K\203\201<\270\312!\275`\342\204=\241\227~\274.;\265=\335J$=qt\310\275sd\367\273\205\005\312\275`\216\223<\001\355>=\334\260\265\272\206\177\034=\337\275\246\274Q\333\216<x\027\240=L\375\273=\230&\036\275\026\266\227<\037\372\306=\2769\034=\255Y\224=\263\033\177\275\255\030\250=\350\254E<\235\024\220\274\310\211F=h\376\205=\001\211\201\275i\275\323\275\022\253\240<C\025\215=8\255\236\274\315\214\002\274\304\nU=\272\016\206=\234o\241=*\256\227\275\230D\225\275\037\023\202\274\360\243\277=\356\n\215=\336ml\273\332\023P\275cM <\231l{\274)\334\250\275K\210/;\216\356c<Py\213=\361W\204=I\310\032\275\'\337R\275t\207\017\275F\010\350=l\360\300=\203\326\037<\232\037\345=p\3457<\312|\210\275\022i\230\273u\200\200\274\201z/\275V$\242\275\351\033_=\227\315\250=\277\247A\275\370\021\205\275\340\3259<\231c\251\275j\254\312<\320\304 \273a\322\234=\336\341\225\275\303S\274<cCH;\373\206\302<\233\351\037;Y\"\325<\243\376\013=\315ee\275\255VG=\361\306\007:\367Fa<q\223S\275\266\342v\275r!!\275$\230\014\275\310K\213\271\274 ;\275\372\303\232\275\272}B=\247 \231=\2201T\275\364fM\275\022\tF=\026\000q\275H[\277\274\250\014\'<~a\220\275\316\271\001<pB\265={\273`\275\343kP\275\242\270 <T\005\240=P\016\241\274T\004\216\273~>\213\274\365\'=\275yzL\274\306\221\233\275\376\260\032=\305\333\315\274\'\375\241\275\001&U;;\320\334=\262\013\360\274CZ%\275sf:=\346\203z=\t\036q=X\3054=\364t[=\366l\255=l;O=\245\t\233\274q]\331\274\237Y\331=\t\207\006=\205\275b<\347X\250<&m\215=\356\016*=\017#\241=[\346\306<\241\264/=\024\207\007\274W_/=I\347\025=\357O\247=\234\265\024=\247t\215;\366\330\336<\353\324\231=\244\307\255\275\251p\016=\374\207\322\274\0357t\275\225\337\006\275\250\230\212=*v\005\274\010\356\372=o\344\216\275\314@\030\275\207\244\271\273{\342\352\272#\262\014<\335\271\013=G\257a\275F64</:\207;\216\260\212=\210g\240<m\t\216\275\235\354\272<|L\226=\037\352\214=J$\224=y\332\235=\260\017\267\274\245M\246=\323E\022:\315\034\346=\3675\342=\202\221B\275\336\033H\275\226\270\037\275 j\352;e.4\274\005B\225\2745\002\220=!j\227<bJ\227=k\306\261\275\273n\300\275\353\335\225\275@\335\252\274\037\334\320=7\226\365=2\317\010=6\252\n=\253\365\304\275\316\262\301=\326\225\277=o\302\246\275\030\t\236\275\304\250\243\273O\017\036\275\034\320e=\251\r\220\274q\006\207\275\177Uj\275Fy\311;\352\350\026=tL\244\274\203\257[\275!\357\000<\345\tW\275\312\240\303=9\250\220=!\033k;s\251\361<\274G\222=gY\222\275\354Z\301<\320\377\270=~\204\311\275J\232\342\274\014\356n\275H\304\257<\335W\207\273X\024U=\001\272\275=\005\362w=\327)\201\275\240\370\017=\354\r\300=9 \264\275\202\030~\275\003&\371\271\230\220\035\275@\252\311=y?!=\313\303\262=\362%\316\275\334\326H=U\221\234\275\256[.=\243|l=*\3164=\0077\200=\r\276\220=\t\001\230=W\250\235<\200!\273\275\313\264X\275u\321\272\275Az+\275\257\3747=\342\003@\273\270\314\313\274\372z\254=+R\272\274\330\360}\275M\330\303<\342d\331\275\027\n\317\2747\336\001\275Nl\334\275#EH=\243S\236=\216\206.\274JX(=\3304r=\271\367\322<:\225\267\275T\2016\275\210\204Z\274a:\232\274jX\326\274\315\031 \275XU\366\274T\316\262\275_\252p=n\226=\275\334\325R=X2\225<\316\210\014\275\217Y\351\275\323\254\177=l\365\355\275\'\n?\275%\200\242=\245\0010\275\261L\307\274\244\006\024=\273G\215={\022\033=S\267`=j\343\220<7 ?\275$_\";B.\370<C\342\355\275?\177\235\275\314\236\337<\227\254\341\275\241\215H\275\247w\245\273\246\212\252\275\312\013\213\272\332\273\340;\000H\236\274\373:\241=\267\306\375\274\321\320\366;\323A\237=\251I\220<\244T\255\275\005\327\245\275%\205i\275\032\003!\275+y@=\235\177\223=\331\010\235=0Nm\274\255\316\203=\233\033\267\274\241?\226=M!\216;\350\310\331\275\342\215\241=\355\236\265\275,M\004\275]\336\227;{ui=L\261\261<\276\327\223\275\354^9\275\227\323\007\275\021\272\264\275\025G\331\275\263\225\347<\240\266\000<b\016\311=J\254\200\274A\215\013\275(\211\310\275\306\255\004=\t\217\261=\2778n\275\351\305\207=M\313\305\275l\301\316=v\324v\275\34658=\030\364\271\275\330E\320:t\003\342\274\0263\311=\007X{=\304\202\245<\345\003\235=\255\225\034=\271\240\253=&\204\202=\202\266\322<\235\363\214=\303\337\275\275#=\205\274\317\231\017\275\031S\310<{\344]\275\"\222\003=%\311M=\225I\304\274\274\3076\275\312~b=\350e\310=\241\314!<C>\353<>\265S<\345\017\r\274\315Vc;>\323\333\275\373F+\275\020\222\237=\267|\022=aM\004=E\325\322=\327/\325<\036F#=\353v\330=\250\325\004\274\237\257\013\275\374\340\356\2721\257\212<\341\347X=Ef\034\275\346_\265=!\302+=\352\243\205;L\002\034\273\204e\272\272]}\247<](\177<8Hf\275 \241\266\275\2060v\275\350\267\253\275\tY&=\340\233\246\275n\200\r\275\317i8\273\347w\222\275\336\207e=R\"Z\275\001\033\274<\236\024\243\275S\301\203\274\372\340O;\301<5\275\t\002\242<\242\373\320<2H%\275!\t\251=-\317\311\275\213\275\236=\036U[<P9l=\002Z\321\274\r\234\227<i~M\275GHE=\034\032\337=U\0356=\316\r&\275\002\200\244=\'\205\n\273\352\217\215<q\246F\275\'\007\301=\240\315p<\221\027\334<h1\343\275\240\034\345<r\214?=\246\037\200=kQ\337\275v\325\255\275!\032\237;O58\274\\(\320\275\360b\035\271\000\266.\275\331\264\234=\232\322i<fV\223\275\003\373\n\275}y\257;\205\313\236\275\263\321\234=\225\241\307\274\334\023W=\271\221P\275\255\224\274\274NM\330<{\220\301\275\030\365\257=\257\330\355=\373\025O=\333\266\264<A\264\245\275U\275\207=m\357.\272t\227\301\274\370\251S\275\004\002]=\232\374+\275\236`\244\273pN\224=\244\374\376:\226\232m=\"x\217=\263\307\220\275\302\237\210=\335\020\277\274\034\235\3209S\300\252=I\351\025=\302e\357\274\003\311\316\274\245;\370\274\'tc\275c>e\275e\220\311\275\335\341A;\374R\267\275\230\333\347\275\'hG;\275\273v\275\031n0=\235c\331\275\317\002\214=\363\235\014\275\212V\003=\343d\271\275)\237\262=;\\\330<\325+u\275\213[1=\315\217\276\275(\221\214=By\236=E\017\255\275\336\030\317\274\027\333\250\273\316\206\262\275\204\0104\275SGL\275\264\313\226\275S\241\350\275\2543\262<\020F\035\275\377Y\200=\\\214\016\275\217\207b=\323\034\250<\261\324\333\275\305\303?=\254b\207=,^\014\275\377\321\327\275?)\332\275\007\312\235=\253\277\325=>A\320\274:\300w\275\000\321\267\274\006>\211=\326\275E\273\004\351\323\274\340\031\303\273\306G\221=\024]\027<!\005\261\275G\322&=n\033\311\275/r\233=\272U\252;\020^{\2754\254\241<\376\004*\2753\024J=\326<\024=V\013c=\315\242Q\272\303s\207\275\036D\355\275\252@\344=\361\242\344<Y:\355\275\037\3731\274\0365\211\275\310\260\213\275;\374\\\275\027\233\216\275\007z\344\275\364\256\334= `\267\275\210F-\275\346_\177\275\367\212&\274\016g(=\205\330\320=\\hw\275j\357\034\275\305\014K\275\006\366\327=\214d\206=?^\371<D\n*=e\006\005\275\325R:\274\247<\232\275\013E\367=\025\222a\275J\325D=\001\024\260=ly\201\275\\\362\t<\212\237\345\274\261\214q\275\210\035\306<\340Q\275=\2007.=\013R\205<xx\332<\"\266\233:O4\010\275\005f\307\274\270\030\\<!T\202\274\t\261e\275\006\253\361\274\234\351\366<f\322\227\275c\224\304\275\304V\305\275\372H\270=\300\340\212=\200\335\224\274K\232\206\274\355\213\353\273+\251S=L\366k\275\272}5\2732\035}\275\307\367>\274\034{h=y\302\227<\201S{=#\315x=\344\257j\275\021v\226\275\265\342\263=\266\2314\275v\323\227=\004\236\230=@i\323\275<\274\236<\246\203\020=O\227\326<\027C\312<\231\260\210=;\274\212=\203c\341=t\2604\275\331\250Q=\007J\262<?4,<96\217\275a\307\\\274\252\311\335\274\334\261R\275\007\314\212\274\220\360\256=\331\311\220\272\303Iv=\230^]\272l\371\372;\202\321\336\273]\023\345<\034\327\263=\366v\010\275\021\005\215\274\251\241\321\273\265S8<\020Lr\275\230\t\311=\007\321\245=\332\220\025\275\274a&\275G?\346=q\355\310=\322\010[\275n\353,=\365-\242\275\335\001?=\240r=\275\344\244#\275\312\304g\2759\n\246\273,\322\244;\325\036\247</\031\247<bqD=\224|\255=R\272\254=\371\355\377\2735\362\246\274\215\334\346=\251\0352=\200K1\275\314\256\361\274\225\310\353\274\251\337\241\275\371t\356<\022\211\007\275HA\024=%\350\371;\002\222\r=?_e=\220\206k=\356X\'=4M \275\027\347T\275\001i\336\274<_\265=y\2456\273\220\215\270<\024\236\024=!\177M<\2107_\275\231\333\304<\272#\221\275f\2214\274\227,\007\275kh\200\275\244\005\253\274\240\373\031=\004\334L=\202a\235\275]\270\256=\275O2\274\006\207\032\275\034\036\314<\232\356\226\275I\002\302=\256\232>\275\346V\027;\207=L\275\317\217\271=`!\034=.;\235\274\306\351\203\275\360Ik\275\216\\\214=>\333\350<\234\024\212=\200\244\324=\220\211L\275\244~\212=\362\250w\274t\331r=\274&\300=\274E\024=\370\\\257=s\263%=\350yF\274\224\307\304=\357NP=\025\364\336=\\\326\t<\320\000\316<\363`\213=?\014\203<\301p\333\275\r\362\203\275x\300\262\275\231\341\315<\345r!=\325\251\310\274}2\250\275ZF\033=^T9=\307Q\036<\314\312\002\275T\341\265=\2414\270=\036E_=\211\0020\275\017\223\207\275/\347\326=\022\302M=]\006\201=\270u\263=\024\335\267<,\242\021\2743\'\262=\342S\257<\024-<\273\305:\033\275t.5=\230\\\034<\262^$\275\3725\364<U\373m=\245\227\353=\t\221\236<\263>\t\275\350\360\213=(\2737\275p\340\270\275\273\227\016=kvY\274\244\313x=\303\332*\274d\222y\275-\341\005<\212\247\362<\244,\250=Ol\322\275\224\257\013=(\037\235=_\001\305\275\232\0015\273\027\342\277\275\345\026u\275\244$\315=\214\352\210\275D\n\024\274O\036E\275\025\230\320\275b>\311\275Q\212\036\275\356]B\274p\034-=y\270E\275\021f\317=ed\311=\301\273\356\274\'\270[=\207D|\275\333\353!=\250p%=8I\330\274X\340\220=i\343T=\030\241x\275\201\342D\275\240q\027\275Y\t\207=,5&\274\211h\235=\347\231\223=\003j\365\274\331\343\263<E\374x\2751\243I\275\326\004\031\2753\031\360<\324w\225=\261\3066=\306\315}\274\245O\023\274\251U\223=C\273:\275FR1<\316\371\022=\332\364\204\273\215\255\t=\227r\370\273\244\357\326\272)6\237=\006\274\000=\241V\272=\250:\332<\331\303v\274,\254\310=\200\036\250<g\324\265=\347\233\213\275J<\304\275\235\301\034=\330U\345=\300\240\233=\177\220\274<\272\323b=w\310\262=Oq\271<>\223r\275\354v\322\274\312=\270=\270>B=\002f\241=\037\2455\275bJB=\"\235\217\2758\034p<\257\301\326=$\306q=:;7=\325\251I\2747\246\021=rVh\275i\n\233\275\031\027@=\r\226\254;\216+\325<\245};=\375\036\250=\342\367y\275\345\311\232=Z\026\230=~Z\273=l\263\327=aY\355\273\236\233M\275\013X\355<^4\350=\226\300\236\275\017\341\251\274\311\276\255=\200\0167=\016S\272\273\353\')=F\021\201\275z\016\232\275\"\350/=\225\305A\275\252\225h\275J\007x=8&\314\274\331j\023\275\304\035\200=\202\304<\274\365+H\275\022\r8=\305\375\316<\262k\314\274}\273\206=\232\333\037\274`}U=\034\240\267\274\362!A=*K\251=\250;\326;NUZ\275\260\3656\275\2158\256=y\323\220\273\365\240\210\275\263\252\267\275\317\370\324:\324\252\301\275;\235j\275>\274\374\275Z.\342=+\017Q\275\004\210\305<\264\177\002>k\n\214=\244\204\324=\354N\270\274\254^Y=F\251+\275\302Q\373<\237\201\375\273\215v\214\275k\323x=\346bF=\245\016\235\275O\016%=\220Q\243\275\232\333\317\273\321N\277<,\021\344:\357$<\275\036\322\"=P\334\244=oU\244=K-\3729\245\031F;cu\216=\264N\265< ;\304\275\246}v\275\255\373\037;\213\364\013\275\223|\254=\224]\241=\243\210\304\2753\313\221\275\351\277\211<\322\317K=\010\235\376\2746\240\316\27580\245=\333\201\014<\242(o\274-\222y\2749\202\257=#\345C=m\317Z=,