node {
  name: "train_inputs"
  op: "Placeholder"
  attr {
    key: "dtype"
    value {
      type: DT_INT32
    }
  }
  attr {
    key: "shape"
    value {
      shape {
        dim {
          size: 10
        }
        dim {
          size: 10
        }
      }
    }
  }
}
node {
  name: "train_outputs"
  op: "Placeholder"
  attr {
    key: "dtype"
    value {
      type: DT_INT32
    }
  }
  attr {
    key: "shape"
    value {
      shape {
        dim {
          size: 10
        }
        dim {
          size: 11
        }
      }
    }
  }
}
node {
  name: "split/split_dim"
  op: "Const"
  attr {
    key: "dtype"
    value {
      type: DT_INT32
    }
  }
  attr {
    key: "value"
    value {
      tensor {
        dtype: DT_INT32
        tensor_shape {
        }
        int_val: 1
      }
    }
  }
}
node {
  name: "split"
  op: "Split"
  input: "split/split_dim"
  input: "train_inputs"
  attr {
    key: "T"
    value {
      type: DT_INT32
    }
  }
  attr {
    key: "num_split"
    value {
      i: 10
    }
  }
}
node {
  name: "Squeeze"
  op: "Squeeze"
  input: "split"
  attr {
    key: "T"
    value {
      type: DT_INT32
    }
  }
  attr {
    key: "squeeze_dims"
    value {
      list {
      }
    }
  }
}
node {
  name: "Squeeze_1"
  op: "Squeeze"
  input: "split:1"
  attr {
    key: "T"
    value {
      type: DT_INT32
    }
  }
  attr {
    key: "squeeze_dims"
    value {
      list {
      }
    }
  }
}
node {
  name: "Squeeze_2"
  op: "Squeeze"
  input: "split:2"
  attr {
    key: "T"
    value {
      type: DT_INT32
    }
  }
  attr {
    key: "squeeze_dims"
    value {
      list {
      }
    }
  }
}
node {
  name: "Squeeze_3"
  op: "Squeeze"
  input: "split:3"
  attr {
    key: "T"
    value {
      type: DT_INT32
    }
  }
  attr {
    key: "squeeze_dims"
    value {
      list {
      }
    }
  }
}
node {
  name: "Squeeze_4"
  op: "Squeeze"
  input: "split:4"
  attr {
    key: "T"
    value {
      type: DT_INT32
    }
  }
  attr {
    key: "squeeze_dims"
    value {
      list {
      }
    }
  }
}
node {
  name: "Squeeze_5"
  op: "Squeeze"
  input: "split:5"
  attr {
    key: "T"
    value {
      type: DT_INT32
    }
  }
  attr {
    key: "squeeze_dims"
    value {
      list {
      }
    }
  }
}
node {
  name: "Squeeze_6"
  op: "Squeeze"
  input: "split:6"
  attr {
    key: "T"
    value {
      type: DT_INT32
    }
  }
  attr {
    key: "squeeze_dims"
    value {
      list {
      }
    }
  }
}
node {
  name: "Squeeze_7"
  op: "Squeeze"
  input: "split:7"
  attr {
    key: "T"
    value {
      type: DT_INT32
    }
  }
  attr {
    key: "squeeze_dims"
    value {
      list {
      }
    }
  }
}
node {
  name: "Squeeze_8"
  op: "Squeeze"
  input: "split:8"
  attr {
    key: "T"
    value {
      type: DT_INT32
    }
  }
  attr {
    key: "squeeze_dims"
    value {
      list {
      }
    }
  }
}
node {
  name: "Squeeze_9"
  op: "Squeeze"
  input: "split:9"
  attr {
    key: "T"
    value {
      type: DT_INT32
    }
  }
  attr {
    key: "squeeze_dims"
    value {
      list {
      }
    }
  }
}
node {
  name: "split_1/split_dim"
  op: "Const"
  attr {
    key: "dtype"
    value {
      type: DT_INT32
    }
  }
  attr {
    key: "value"
    value {
      tensor {
        dtype: DT_INT32
        tensor_shape {
        }
        int_val: 1
      }
    }
  }
}
node {
  name: "split_1"
  op: "Split"
  input: "split_1/split_dim"
  input: "train_outputs"
  attr {
    key: "T"
    value {
      type: DT_INT32
    }
  }
  attr {
    key: "num_split"
    value {
      i: 11
    }
  }
}
node {
  name: "Squeeze_10"
  op: "Squeeze"
  input: "split_1"
  attr {
    key: "T"
    value {
      type: DT_INT32
    }
  }
  attr {
    key: "squeeze_dims"
    value {
      list {
      }
    }
  }
}
node {
  name: "embedding_rnn_seq2seq/rnn/embedding_wrapper/embedding"
  op: "Const"
  attr {
    key: "dtype"
    value {
      type: DT_FLOAT
    }
  }
  attr {
    key: "value"
    value {
      tensor {
        dtype: DT_FLOAT
        tensor_shape {
          dim {
            size: 24
          }
          dim {
            size: 128
          }
        }
        tensor_content: "}\017\252\277X)\234\2772\3406\277\003\302\220?\240$~\275\260\241\360\276\023w\323?\331\326\330?\036*w\277\033\013\312?V7\306\277\302l\032?0\260\355\276l\247\326>j\024v?\353*\235\277\323\265v\277\354\304L\277u~\332\277\316\333x?\200\2322<\212xZ?\020\362\347\276X\365$\277\023\204\264? \202\301\277\332Wd?;=\221\277\350\301\367\276\342\340\004\277\213\002\302?\004\253\324\276\351=\300\277\3419\256?ab\234?\226\337l\277\220K\270\275\300\201B\276\340@\342=VM\266\277?>\327\277\246\272\177?t\317\346>\254=-\277\277\265\236?b@\221\277\200UB<Dy\310>\223p\254?\024\200+\277\230\350\324\277f\343\240\277\331\253\260?@\342\n= ?\347\275L\214\271>dG\205>\277[W\277\270j\207>;\311\207\277*iQ\277\317\224i\2778JG\276\220\234\240\276\236l\010?\232\277h\277 \344\333\277\200\261\275<>\253s?@\364\014=\221K\266?\255\303\205?\322w\016\277eJ{\277d\261\310\276\004\020\370>\313\224\315?\200~\311\277U\337\332?FN\210\277)\326\330?\000\306E>\020\236\253\277`O\234=~\001j?\003\221\247\277\313\330\315?\336\017(\277\334.\236>b\356\274\277\360\240\354\275\240\372\377\276\000\025\267;\030\014\256\276\'\033z\277\324L\314\277\315@\312?\224w\210>\212\n\004?2\306S?z(\004?\335\027\323?\236M\t\277\250Hn>\367\010\274?!!\310\277\221\270A\277<s\202\276\010_ \276\342\032\001\277{\001\251?\244e\210\277\240\237\323\276\036\207[?I\247S\277\246\243Q?\377$\214?p\242%\276.4g\277\316Q\023?&w\007\277\247\326\231?<\2046\277\014K\263\277\342\255\251\277\300\212%>\371k\320\2778\265@\277e\177\233?\214\256\202\277\235\266\273?\266\000\252\277\367\361\333\277\177\212\322?\n\203\204\277T\032[\277B\035c?\200(\260<\200&%=\347 \215?6\004.\277:\240\036\277\256a\255\277\271\000\257?t\323\001\277\200fr\276\242!\205\277\201y\301?)C\335?0\201R\277\014\206\244>hs\256\276\036\344]?\230\341\304\276\000\270\346=\242\371N?E\224\217\277\341\246\326\277p\301\267\275\020\264\236\2766%\307\277dQ\226>\254\240\213>q\222\273\277f\250>?\376uM?\356\307\016?\246\032\003?\022DS\277\237\336\260\277\024\362{\277\331\325e\277\r\007\305?\034\324\376>Hn\017\276P\026m>\313%\317\277\224u\263\277\234l\351>\002\004<?~!O?T\341q\277J\033s?I\t\256?`S\267\277\000\3578\276\335@>\277M\321\311?\323j\316\277\"o$?z\317f\277#\222\307?T\320\225\277\"\315o?\265p_\277\373\"\205?\273z\275\277<|i\277\274\033\371>:DW\277A:\204?|H\232>\220\032G\276\t\016\231?:\322\020?-<\312\277\310V\032\276\017\250\333\2770O\031>\000\177\253\276\345\037y\277 m\010=\254G\037\2770\202\260=(\005\004\277\222e\310\277D\244\201>\014w\243>\255\372;\277,i\222\277\026WM?\026\335\017\277\031c\310?\037\346\224?\002y\037?\331\354\254?\252\377U?^\216+\277`\307\362=\327\307C\277\377\t\267\277\231\222\242?\306\306\036?\005\325\222\277\002\375\330\277\230\372\301\276\350a\030>(\250\273\276D\357\361>\230\265\253\277\000\327;<\214O\322\276N\340V?\327\033\274?t\036\254\276\331i\306?9\376\234\277\353C\322?\244\266\337>\264\017j\277zP\003\277Z\350\272\277\"\354,\277|\333\252\276\353\267\215?\257\rb\277\212\030\321>\375\363\">L\220m\277\302\247k?\203\001#?\373%\005\277<\200\221\277\"\350\306\277pt\236\277j\030R\277L^x>\341\006\232?\253\272\305\276\013\315Q\276\006\372p?\215g\211?H[\355\276e\025\202\2765\225\023\2769\322\342>A\231\312\277\360\007\251\277\257\325\274?\346\252\255?N6\324?\235\353\312>\307\204c\277\036\324\267?U?\317\277\225W\252?\037\302\363\276\263\276\221?V\263b\276\275C\320>8\031\023\277\366\276V?Fz\216?\302z1\277\270\272\311\277\305I\223?\027\312Y\276\000\334\\\277\2211_?>\213,\277\320\376\311?\000S\272?\364\371\326?\232\336J?\325\034\274\277(#.?\202T\323\2757\352@\277\027\t\325\277p\003)\277\220\244o\273\223s\014\277\316\206\313\277\242Yc?vk\207>\201\010\237\277\212b\365=\265\321\203?\202`t?\305p\\?ri\302\275\332F\310?&\222\274\277D\207\343\276\312\242\000?\310\217\204\2773F\212>\254\246\247\277\355}\334\277Y|\312\277\270}\241?\023E\014?\225p\202\277f\037\000=\250t^\277\371\027\233\276B\237>\277N\325\254\277\023\327\212?\204\350\313>\031\016@?\257j\225\274\025\326X?S\352\014>O\274\226\277\031\237j\277\314\377b\276\353\233\307\2772f1\277\243c\200\277\002\276\034\277\022#\323\2764\000\213?*\327\201?j\010\263?\366\214\253?%#\316>-\032u?\204~\254?\372\306T\277\201-N??\202\223\277\230F\215?\270B\267\277\237\366\255?d\276\\\277?\340\243\277\363\361\200?\220\325\254\276\031\371\274?;\357{?\273\242\360>\265J\214?\033\354V\276/\0076?\354\245\326?c6\265\275\203>\310\277ic\205\277\377s\325?\335\213\301\277\231\321\273\277r\213\225\277\331\277\303\277\302\301f\277\0146\222\276\341\205\245\277d\347\216\277\246\034\204\277\300V5\277\271f\261?\016\324\234\277\260\343)\277\313\362V\277\300\233\311\276\020\216\306\277\370J\271\277\302\257\314\277\202@\251\277\220\013)\277lK\256\276O#\227\277\242\225h?\206\235\n?\334\273\204>\323\245\203\277\326\022m?\305\002\213\277p\320\236\275\260\372\207\277\364z\"\277\316F\304\277\022E\254\277\"s\254\277F1^?\3121A?8^\211\277\3546\340>\366\265\241\277B\341\265\277Pb4>P\2413\276\200^4\274\223\006\275?\030.\246\276p\270\226\277\0145\277\276\225\245\304?0c\277=\310\354\367\276\242\020\256\277}w\263?\250^$>\234\220\223>S\204\270?Fp.\277j\320\233\277K\027\326?\314\267\265\277#Y\266\277 \177\030=\356\260\'\277\234\204\307>\320\274\261\277P\3438>\344=\213>\237\034\313?\261\t\251\277E\227R\277O\t\312?\263Xi\277\225?\305?\207c\312?\250S\257\276\200\234\005=\000\215\246\274\340\237\007=\023F\222?\302r\030?\367e\325?\341C\320\277\270?\037>vem?d^\234>\245W\212?eP\332?\365\322\211\277izt\277\2441\235\277\000\2520>\306?\231\277sL\252\277\316\353@?F\320A?6M\031\277\253\003\251?>\327m\277_(\237?`\027g>]\236\207\277[Hy\277\035\252\274?\371\374\243?\215\316\232?\340&[=w8\225?\224\316P\277\200\272\300\276\236 6\277;\332\257?v)-\277\324\304\203\277\265u\255?\017T\317\277\301\327\222?\236\231\232\277\256;/?P\\\347=\244|\317\276\256B#\277h\306w\277\326a#\277\306\225\001?\224\267\217>\317\320\325\277\010X\\>\200\233\237\275\340d\r\275\346\364T?\024D\322>\002\273{\277\020\372\315\276\003\014[\277\203j>\277l\024\261\277I\013\327?\216GS?\366P\003?&\022\036\277D\026\221>\243\025i\277\303\272\255?$\332\371\276I\243\275\277^T\\\277\260:\322=N\307\302\277Y\235\270\277\\-\260>L]\201>vIL?\212kK\277\370\224K\276\262\025\205\277\223\205\214?\366\302\262\277\224\231\227>\351\006\304?\2466c?Pd\345\2757\364\267\277\310\224\201>\r\021\312\277T\220\374>\273:\212\277\021\277\314?_\246E\277\237n\243?\335uZ\277$\254\232>5\353\226?\013\312\266?\340\035A\275\035Z\200\277\320\033\340\275\300\245\013>+\324\215?\332\334U\277\320\320\310= \203\014\277\2728`?\253\237\271?O\207\333\277\014u\265>\201\250\254?\215\023\275?\200\213\256<\217\237\240?\0347\304\277\201\373\232?\202\233\006?\224,\330>\242\263V?P\252\266=\205\255\210?\000\035\355\275#\357\311?\266\303\263\277\005E\235?\3445\247>@\\w=4\365\352\276G\271\207?U1\235\277*\224n?\267\r\316?\301U\327?3\323\225?\342\202S\277HO\204>\376\017\223\277y\001\262?\300\265\312\275\'\276\311?\266;\311\277\367b\264\277\234a\213>\323\371\275?\354\236\366>\320\371%>\r\370\315?\017\023\210?BQ\305\277\032?|\277\304\370\233>\033\343X\277\301\032\250?\260\014\200\277\r\322\250\277(7{>8\353\030\277\300\215\020\275\357S\255?\310Aw>E\206\230\277U\313\232?y\240\302?=2\243?) \213\277#\341\214?\204\205\216\277\224\016\000\277\331\315\231?\345j\247?\300!_=\200V\321=\224#\330\277t\377\241>X\361N\277\201\222\235?\264\255\307\277\237}\301\277\371VU\277\210e\370\276\252\306\232\277BF)?\350\247h\276\254x\251>\372\301y\277\013\006\304?T\341\026\277\231b\271?\331\210\320?\033,\276\277\266\177\224\277\364\227\311>\354K\246>Z\254s\277d:\252\276\023\177\226\277\357\314\304?\013/\201?%\310\277?PW\r>\334k\257>\222u\274\277\222\221\031?\252x\303\277z\037:?u4\247?\374\267\231\276w\227\210?p\277\215\276\227\221\325\277 \016\235=E\271\201?M\303\270?\320\243\303\276\204a\267>%1\253?s\312\227?\275h\253?\336ju?F\362`?\007\201\305?q\261\315?\260\201D\276WN\335?j\347\274\277ha\306\277{\035\311\277C\306\232?\016m\227\277hh\304\276\247\262\235?N7\243\277,\240\324>\263n\324\277\337\341\315\277W\\\250?\206\003\215\277\354\317 \277\313>\306\2770X\204\275\006\215x\277\216\253\312\277r\231>?u%\244?B\331k?JPJ?\200n\315=X|\345\276E\212\310?\204t\243>\204\014\326\276\214H\276\277\367\004\260?\304m\241>\310\224X>Y\370\302?\024\267\003\277\230\260W\276\254\254\221\2767h\255?\000B\'\275`T\020\277@\352\003=\211@\305?t\237\322>\366\341\250\277\230\326)>\006M ?\000\211\235\273\343G\212?T\352\231>\314\344\276\277\336\241\013?5\357\271?\272\364\230\277\0007\030\277h\266\247\276\201\026\275\277\263#\232?\005\"\236?\236\210\005\277\007E\325\277\340\030\004\276\331\317\315?dh\274\277\215\"\303\277u\322\243\277\217[\276\277\276+V\277E\025\267?\260<\265\277 \027N=4\001\004\2770\006\213\275\222}\003\277\3208,>\210\007\247\277q@\210?\020_\235=\320b\266\277@\335\217\276\023F\223?\303\236\247?\037:\237?l\301\334\277\264\324\254>C\n\301?\\;\213\277HOn\276\3437\315\277\256Sx?q\365\310?\000\324\327=m\224\235?-p\331>\210\227\343>\271\203\001\276\316\255\002?\357\322\275\277\035M\216?\350\257\223>\2654\217?\177;\237?>\323\256>tZ0?{<\224\277\014\235\327?w\231\317\277\r\335k\277\273d\310\277\337\244\260>\235\271\'\277\021\256\274\277V\310\240?\232O\r?\027\344\017?\223s\020\277\203\014\306?<\002\362\276\\!\311>\372\357g\277J\323\263?p\321\364>\006\373\247?l\326F\277<\227\326<S\304\n?i\207\244<3]\247?\001\010P?7\243\326\277\376&\353\276e3\301\277\321\'\362\276)\234\247\277\340\341\204\277b\036\277?\030px\277\341\361Y\277\363\334V\277\3035\000?\t5\305?\251\263\375\275\ru.\277ET\035\277Q\0016?t\356\253?]\230\234\277\344\261\376\276\312i\243?\232+,\277w>\335\2764\023\246\277\016\344@\277t\260\334\277cj\324\276\321\231\267?\030\323\271\275~c\237?\242\202\243>\354\222\004\277\024\354\334?\317\013\334>\205\233e\276\002j\222\277\230N\013\277\2731\030\277y\275O\277\225\257\010?\211\275\307?\374F\230\277\325!\241?~\360\006\277\330t\312\2775\345L>z\177\235?\035\261l?\354\\\273\277\002\032\327>p\317\027>\204\206\344\2765|`?\307\261\331>vi\241?\274\221\307?\322\025\005= Kv\277\313\272!?\257\200/\277=\266\336\276\302\013\252?;\256\353\276\346\002\223?\234\033\331\277,\203Y\277L^1\277\017Lr?b\362\327>\007\302\234\277\265\237;?sy\037\277\275\002\273>\326e\244?k\316\313?\366G\227\277\005\241\267?\330\372O?6\301??\270/\264?\031\343\206\277\240\341\223\277F(]\277\214y\002?0\270\353=i[\264\2774\217r>Su\325?\3073\223\277u\261\n?/S\222\277\370\370\265\276\260\r\213\2773\245\310?ZZ8?#0U\277;\246\304\277\300\362\230<\313\027\222?@u\220\275f\375C?d\373\306\276Z\016\025\277p\261\250=8\334\177\276\360qt\277\342\002v\277*P)\277\364\023\033\277\371\006\205?^\0244?\257&\230\277&\362\300\277\355\327\237?f\032I?\341Q\312\277\356fd?bl7?\t/\277?h\311\365\276\341\267\240\277\374o\325\276@)\020=0\377\210\277G\227\264\277\332\343%\277\363Z\234\277\303\327\300?\"\226v\277\323\225\270\277\352j_?\304\005\321>,\347\236>l\007\271\276\270\303\247\276a\006\212?<\252\237\276\240eU\276\021\331\316?\231\274\242?\364\330\315\277\327\214\310?\320\216\356\275\243\221\274\277\210\242\031\276\r\250\332\277^\010\215\277\273\350\312?\\\200\216>}\020\331?[\017\333?z\253\261\277z$n?|\357\217>\004\345\276>f\243\'\277<\270\346\276H\277\271\276\000\030\356\276\264\210\353>M\356\257\277\302s\030\277\334\r\223\276\354\\\225\276ur\206?\300\265\034\275H\372\253\277\376\312\320\277\303\253\313?\177\332\244?\31057\276\200\006r\276\"Dr?k#\247?\200=\000\274\372\260s?\241*w\277\267H\203?\002\372h?mQ>\277h\327\332\276\2304\364\276\032_Q?\356\023O?G\017\246\277/~\263\277\224\215\265\276\315\200\313?M/\316?h@9>\006\317l?\357N\231?K*\304?[\343\216\277D_\263\276\030\214\034>\242a\032?\340\034\370=\002\324X?\317\035\224?=T\327?\366\355v?\260O\221=\270e\312\277*\t\254\277\303\343a\277\200U`<\020\265\010\276\000\033\311\273\014e\254\277Op\221?\352\276f?>y\243\277Cn\261\277\252xo?\300\t\337\276\260\026\365=\360\213\003\276\262t\327\277X\325\037\277\230\222\014\276\025\213\320?\2141\245>\211\177\245?\235\303~\277\026E\313\277~J\003?\010d\312\276\241T\325?aa\263?\271\317\245?\000\202^< \033\023=\232\n\222\277\010\214M>-)\204?\361G\304?\022\223\022\277\336\364-\277\370\342\316\276Y\t\305?\342\032\252\277}F\251\277\013Z\273\277\036b\'?&)\317\277\007\320\244?2\372\026\277\n\027\223\277\204\340\265\277\016\271-?\340:)\275\306\200\017\277JK\002?\224\321\205\2768\334&\277\r\023\315?\210\363\227\276l)\203>\236\244\026?\260\310\226\275\371E\302?\304\355\204>Vn9?9\364\210?1\326\260\277\374\240\345\276 \327i\276A\203\262\277\325\253\230?\342\025H\277\306\244\331\277x_8>\004\276\214\276\216>2\277\314\022\364>u\333\310?\325\336\227?9\035\232?C\016\312\277*\034\026?.\247E?f:\035?\372\361p?d\341\245\277a4\207?\235\362\305?\220:\240\277\213\231\307?\027\202Q\2770\037V\276r\005\017\277\356\031\313\277Xk%\276b\276\252\277\006aP?m \256?\214i\315> \201\310=0\206\344\276,\370\300\277\210F\303\2778\260\240\277c\367\275\277(\\h>\356\234\'\277\351\353\256?\007]\240\277%\000\274?\360\227\307=\354\240\252>Z\365b?\0064I?\374\327\253\276\232\234E?h\032I>W\362\224?VWG?\3520f\277\3248\032\277\220\\m\277`\002\267\277*\3600?\200\307G=\240\032\333\277\266\213\277\277\270\371\335\276F|F?\246c,?\'\357\323?\321f\256\277f\321C?`II=e<\247?\014\271\332>\244\245\266>h\r\212\276\214\356\277>fJ\332\277\016_\001?\245\202Y\277\275\007\327?1<\205?89Y\276.Wl?`\302*\275/\355\250?\246\214x?\247\264\251?\365\327(\276\002\321\036?\270\372s?Bsy?\006\016\306\276@\370=\277m\243=\277\3421@\277\260\\9?\n\223;\277\355\201\204?\271\240\336\276\255\223\357>\367\3379?\"~\324\277AI\204>\016e\215?\350`\230?6\244\216=\027\327C\277MF\313?f\036E?\"\257\313\277\276q[?+O\354\276\310\031\320\277\024\326\214=#\377\306>K\274\332\277\t@\317\277\200p\211?m{h?\231|\201\276\325\237\203\277$\345\025?\00386\277rw\265>*0\034?\261 \026\277\262^\233\277\375z\266\277\001\t\204\277\205\226\260?I\335\355\275\255$\233\276\361\023\301\276n\367y?\201\032H?\330\203%\277\374\0004\277\347\204\230?\214\031\220\277s\265=?>\366\177?~o\331?\316\362\316?\300\331<\277\030\360z>\301\334\252?\320\305\010?\0337\207\276\227\242\277\2773\216$\277PZ\201\277y\"J?\202\350\262?\257xQ\277\252ay?\340\344\264\277gF\377\276\221\200\021?\023P\305?\000z\210?\265\332k?r\372\321?\2737\215\277\357\220\324?\030\331\310\277\260\226\234?\240J\307?\275\226\316>$D\034\276zs\333\277\362\304\325?+u\227?\204\230\021\277\242+&>\370\013\317\277R7\270\277\321\206\014\277\227\021\306\2772r\221=\023\230\256\277\260\031\264?\303D\224\277$\260Q\277\300L\314\277\223\264\332\276\266\326\371\276N\nq?V8\030=\363\213\307\277U\345\375>\314\207\227\277n\265\203?\270a\221\277\252\357\206\274\216~\347\274\235\320\n\277\003\017\241\276,L\255\277c\322??t\r\246\275{\017y?Xgm?\020r\223?[J\345>\r\3149>\271\247\261\277\005/\313?\2763%\276I?\013\277UC\307?\307\247 \276p\351\225>\360\200\245?\354\360\320?!\020\277\276\351\242\325?\232\220\234\276\'\361\341\276\357\231r\277\313\027\221?\362^\245\277\004W\247\277F\277\276?\366\333\276\275t\307\007?*\271h?\334p\016\277\177\361$\277\016kj>\315X\374\276W^\250\277\313\322\253?\260\224\240?!Vp\277\025\325\236\277\205\272\037\277\355W\201\277\366\014\221?\351N\346\276\036#\260\277\"\306\026\277\237G\223\277\375\234\326>\332\020\325\277c`\274?\250\353Q\2774\351\032=\206!\250?o\033\255\277\362y\345\276^\260F\277\303\251E\277\032\377$\277_\226\032?\240\001\301>\017J\344\276\200d\306\277\254\017\233>p)\037\276bS\032\277\000|\305>^\313x\277Gz\211?\223\242\321<>\213\233?\244\024k?\354z\224?{\334\234\277\371\206\020\277\260\260\260?T\311\002?\177\245H\277\225A\307\277\344\230\273?Y\377\316?\201M@?\274S\260\277\214\001\271?;\002\331\277\013\234D>\370\377\324\274(b\320\276\203;e\277^\340m?#\362\342>\235\302Y?\213 \202\277M\354\033?\330\253\202\277\374\235\013?k\020\223\277&\260\033\276\341\361\n\277\250,E\276\341\266\265?\037\2725?\025\304\252?\006\3471\2766\215\205?P\253Y>id]\277k\017b?r\036f?\253\227\305\276\256\342!\276\337\324S?h$3?\202C\262\276T\365D\277\264\322\322?6\350\251?\354\213H\277\375\233\213\277@\006\222?\340\n\256\277\307\034\235?\301\026\225\277\017\211\022?C\006\316\277+\031\267?\247\035\241?\350\347\306?YL\271?z\255\317?\024\3361?s\327\201>\340`\017?\220\227\323\277\033\232\325\277Z\325\331>\225+1<?rt?\'\230F\275\'!v\277L\206O\277z\275#?\213l\336\277\261\375r\277\257\037\252?f\243\330\277T(\234?n\355\226\2763m\242\277dQs\277/F\311\277\005\006\246?f\253\235\277\200\221\242\275\016\001\324\277\217\316\216\2778P\300\277\214,\315\277\244\232\271\276\235w\230?\351\022\237\277\332\212K?8\221\215\276@\272\211\277*\026\270\277\340\016\020=~\343\'?\362$ ?R\373U?\222\366D?\304\226\251\276\330\327\225\276\330=\034\277\036z`\277[X\262?\267\035\302\277<T\316\276z\333+?\242p:\277W9\330?\344\340\220\276`\350p>\200~\366\276y\260h\277`1<=\331m\334\277\262\245\302\277\376?\236\277\320K\364=\\\332\201\277\020\026\037\277p\273\006\277\312\262\"?\377\331\231\277Q\225\326?G\237\210?fw\006\277\234\240\204\277\243\215\270\277\323\365\326\277{L\211?\347\301\252\277\370\002\001>\212d=\277\204\346\231>\3259\326?\346\305]?8\032\177\276\253\203]\277\307#\334\277\"\017\244\277A\310\204\277\326\325%\277\377Ab\277 \370$\275\254\277\320>\340x\"\277#O\316?\0003\236=\250\261J\276\354\232\226\277\326\264Z?\037a\251?\"\240\t\277\376\031B?\230\342]>@e\372=OY@\277ef\332\277\360\202*>R\210\005\277X\206>>\211\200\331\277\rY\204?n\217\n?\'\220\241? \332s=l\231\034\277(8\206\276j\327!\277(\0318\277\"\034\214\277@\235\303\275\245\310\321?\326\350\262\277&\255q?\210\370\017>\375\352\272\277\325p\254\277\325\316\205?\035\232\214\277\255U\313?\022,l?\002\200j?\326\223*?GC\211?\300kG\276\341\324\260?#\224\325?\022\320\030\277\266\247\"?\000[\271\273\250\002\261\277:\252\034?\303\327\206?\323\307\320?\266\374\027\277\370s;>\030\276\275\277c\316g\277\2343\203>\000\246\310\273P<\215=\225&\256\277)\216\316?\0004\317\274\240\256b=gS\202>\003\367A\277\031>\027>\330\350\246?[Gp\276\301\327\270?\323\207\243?\275\323\213\277\257\245\221?\270\014\331\275_\327\203\2761\014\033\277\355\376\202\277\354_N?po\363\275\353d\233?\217\373\331?\340\270\r\277\013\200\345>Ye\312\277>F\200\2747\377(\277\3153\335?\354Q\237\275\214\357\031>hX\242\277\332\032\034?\227N\251\276l\'{\277\352\235l?\232\321h\277\370{\277>&H[\277lnC?\355Q\265\276\265\221\253\277\214\217\332\274\230\006\273\277\353\035P?3\322\235?|\006 ?oz\223\277\\H\241\277N\343\324\277\031\r<?\244e\231?\272-\251\276\362\376\372>\244\tx\277\316H\233\277\277\326\273?\222\227\022\277\310T\353>4\232\240\275\267\377\016\277\362\364\241\277\2758n?\2474(\277Lt\204?\206\215\316\277\316\022:?v\310\034=L\231e\277\354\364\020?\227\300\330?\204\260\331>Q\234\364>2},\277.{\210\2776\322`?\362\013\301?2\232k?\267\344\242>y\376\250?@\231\231\277FK`\277\337\307\233?5`k\277\212\264*\275\r\344\275\277>\013\270\275XM\262\277+g\264\277\000\262\225?B\022\010?\226\336\030\276\2327{\277\374\257H\277\001\226 ?yh\305\277\237\"\247\277gF\335\277\r\367\312?\007){?\342\271\r\276\213\3676?<\365\335?Is\251\277k\274\341>s\366\234\277\006\226\253?Bb\034?\351+9?\203<\305?;\302U\277\024\231\243\277\360\366\315>Fl\274?\007J<?\266Y^?\035\337\204\277\350R\006\277\314\316G<\366v\315?\020_\222\276Mf\332>e\021\376>\244S\301\277\001\262l\276\006K\031?\321\332\237\277\"6\227?W>\356\276\0171\272\277<\253\301\276 \375\215\276\'b\220\277w\337\204\275\252\353\302\277\000\226\353\274p\306\241=\233\220\237\277\205I\320?\253\026\207\277Q\304\253?L(\350>\370\376\030\276b\360\025?.wA\2774\\\345>q\354\306?l7Q\277@\ny\275\213Y\251?\023!@\277\264f\312\277b\227X?\030\355\321\276\251\r\276?6\004\251\277\274\242\005\277\342Y\030\277\036\276\331\277\346\210i?\202\270H?\272\256}?}\360w\277\255M\212?\313\210\231?\311\"\323?\036r*\277\0236\250?`\323\246\275S\272e\277B\0359\277\322eI?\201\200\271?\274\303\242\276\022\377q?\351qq\277\004/\232\277`DL\275\273X\313\277\377\200\246?\364\3454\277(\211\223\276|o\321\277K0\236?\243W\254?\356\360\265\277\"\243Q?\304\027\305>\246}Q?\'A\223\277:\232\330\277\344\242\214\276\245<\331\277c\367\246?\336\016\030\277\232}\005\277\256\267A?\320\206\363=\220uW\277\026$c?\024~+\277\222\\/?2\036y?\377\367\303?^\265>?\276\037\201\277h\234\267\2770\216L>\323V\237?7l\266\277\202\345%\277e+\201?/\036\321?|\033\346\276E\210\333?H\026D\2764\001\224>\"\337\'\277\317\315\274?\315\'\330?\343\004\256\277 \002\344\275e\016\230?\343\316\227?\220\3129\276I@\324?\n\234\323\277\232d\001?\236A\227\277\204\373\306>\300Q>\275\224\372\311>;\223\237\277\340K-\275\220j\343\276\315tQ\277\010\325,>\206\276x?bE1\277\324/\214\276\240FF\276k7\215\277\216]\003\277\032\036/\277\312b\037\277\204&\227>N\030M\277\343\246\246?H\033\227\277E:\236?\364\262\324>\344\355\014\277\356\330\'\277FgQ?\201\000\313?d\260\212\276\024\310\324\277^:\330\277(\205\013\276I\274\306\277\340(\321\277\234v\353>0\301\320?yc\246?J6\224?C6\276?!\373\233?\022U\332\277A\302\235?\200Ac\277\327r\313\277\202>\301>\235r\232?\332@\234\277\306q\231<9\3136\276\0252\267>)\313\201?{\315H>\"<1?\005\034\242>k\247\217?[\2137\277\334Z\307\277\231;\027?:\371\305?\246n\250\277\216\333\177?70\242\275\276\353\307\277C\333\224>\213\265\263\277\260\274q\277\252R\262\275\t.\347\276\275\005A?(P\273?\212\231\221\276E[/?\271\306\334\276\350\313\243\275\0329\202\277\212\341\240\277\037\352\331\277qm`\276\n\307\250>\t\324\204?IH\201?q$u?\004U\257\276\322\261\235>\310\241\276?\026\312\216\277N3\223\276\241R\273\276hDI\277\000\343\334>\341_\203\277~\010r?F\177+?\t\264\245\277\217\357\207?\306V\306\277\021\265\221\277\353\302s?\326u\254=\265\306\'\277\235\"\373>C\031\230?\341\037j?\nz\262?\213\331\252?\353\353\270?\237\344\252\277\006i\006\277\332U\236?\202\221\220>\225\345\251?\221\307\254?\240\t\"?\351\305H?\356\253\226\277m\372\223?\265\365\327\277\352]\205\277\345S\346\276jB\324\277\341U\376\274 b\325\277\005.\376>\262\263\357>ee\307\277T\342F\276\000\375\026?a\347e>\247\333\255\277\277\276\307?\241\271\\?\245\200\271\277I\350\253?\377\355\253\276\354l\234?\271\336#?{\024\231>\347z3\277\3655s?O\361\216\277|\013\035>\317\337\364=P\260=\276\354\361\300?\026\251O>S\311S\276\2139\251?\364B\317?\333\027\021?!\312\023\276\246\016\277\277\370\010\245\276=\264\246\277\325p\242<\232C\r\277s\276\325?\261\2667\276\321\252\352\276\234%c>\177\250\332\276\240(@?\234\212\202\276\355\332\003?\270\020\225\277\024d\336\2760.\024\277\274\242\257\276\314\350\351>&h,\277\370\235y>\002\361t?\232\010\252\277\2343\236>\'\254\300\277J\256{?\363\334\207?`_\001\275+\352\275?\276\230\026?\021Hk\277\000\3472>r\276&?~\311\210\277k\340\230?\274\335\241>\342F/?\324\261\243\276\236G\037\277X\2070\277M\212\303?\235\303\324?\215M\332\277\244\344\313>m\275\255?\232\335\301\277\350T\217\276r\236%?l\371\005\277\001\277|\277\035\246q\277@\217\372\276\304\342\332\277\302\r2\277\370H\257\277\260\0139>B1g?qb\230?bA&?8\217-\276\216\373\010?\304\263\216\276@\257\253\275\211\221\211?\216kq?\317\354\257?U\266\244?\024\367\273\276\277\r\317\277\340I\333\276Z)T?\3541\345\276\225?\302?zi\001\277\332F&?\353+\210?\340\374\362\276\010lU\276\260O\027\276\315a\220\277\206\2368?\322\320\216\277\340\361a=r\003g?\000g*>,\261\212\277 \020\036\275<\325@\277\255+\333?\234\331\035\277\304\252\312\276\254C\200>\200^\261\274g@\210?\247X\205?\254!\334>\254\245\'\2772[\032?\331\034\233\277\263\241\277\277 \025n\276\300\204\005\275\025}\311\277\220\323\035>\360\r\315\277\\\324\372>\256\"\312\277#\313\331?\013\266\273?\200uz>\300D4\275\034\004\032\277\341v\313?5M\216?\230i\242\277\001\221\230?g\367\325?\212\0321\277\004\250\377>\027\006\332\277=\322\270?Y-U\277\272k\212\277\276\314p? \346:=,\010\346>\240gE\275\327\323\300?4\316(\277\t\220\231?0\367\001\276\223\237\333?\236\240u?\272vu?\224\262\342>\342\251I\277\2644\223>\017\345[\277\314\010\270\277Z\353.?\365]\333?0~\337\276`\225\223?\251J\222?zC9\277\207\205\220?Wm\'?\273\222.>\332\327\226?\001X\362\275!\024\321\275\344\334\240\277\331\007\216\277\241\377\031?\225\361\325\276\215X\345>\233\204\311>@\021m?\357\235$\275\242\235\224\277.~\247\2777\364\021>\322\026\271?n\274\307>\357\006\355>\273\243\311>\003Yu?G\250\202\277\035\341>?s\310y\277\2453<\275\201a\313\277o\212\312\276Pm\300=S\270\317?;\215\255?_+\325\276\001i\277?\224\301\232\277\246\320\331\277\315\031\263?\021>\224?ZW\211?\340\335\016\277l\020\313\275\033l]\277\210U\252?K\211$>E\346\211\277QE\211\277d\204\\=(\373\223?\267\336T\275\340\034\346>\247\262\200?\277\223\302?\264l\353>W.,?\335\245L\277\320R\277\276D\005\245?!\241\245?\3628{?\266\302\225?\016\'b\277dDh?\033\022\221\276O\224/\277?\215\302>w\331m\277\005y\203\277YD\335\277\353\262\223?O\266\302\2753\024\237?\221\322A\275\003p\245?\215Q\275?C\337\321\277\357\203t\277S>~\276\271_\233\277@J\000?\234\360\017>\3579\260\276\3519K?,\032\250\277A\256\321>\366\223\224>\352r\334?\0071\254\277N\235\227?kX\215\277\236i\334\277\327\357\265\276\307\315\336\277\245\271m?\017\316X\277q%\266\277\247+t?\341\224\036?zt\213\277C9\301?X\221L?\032\316\246>\235\007\210\277\307\220O\277\376\274\213?\350\317\202\277\321F%\277>=\316?9\337\317\277\275\263\303\277}\ns?k4_\276\323\232\301?\343\333`\277b\276%\277\302\254\200=\270\270\231>\230\226\006\277\204\336\307>\234\233n\277\2502\021\277vn*\277\226d\301\2776d!?q\323\230\274p$\247?v\003E>\025\t\274?\266\013\021?f\336\205?-\001`\277OH\177?\261\255\276>_Y\260?6\333\267?j\366\302\277\'#\203?W\366\275\277O\264\204?I}\326=\r\247\327\277`\356\030?#\021F?\200b+\277\014\353\243\277\242\354\344\276:\023\260?1\350\017?p5\235>\206\246\202?\351\354/\277\032\352\017?U\220\232\277x!\223\277\207\257\313\277\2557Q\277\006\367\361\275\364\305|?\033Nr\277\247G\245?\362\320\317?\264i\247?\t\240\240\277\257\010\224?\260~q??\266\031\277/\300\323\277\327n\332=)\343i\277\334VT\277\327\310\270\276&\005\243\277#\376\251\277\253k\206?\342\331\352\276\251\017\210?\340\366\020\277\361\214\322\276O\372\021>\327G\324\274\266\375E?H5\302\277\254\357\021\277*k\301?\334\"\266>\353\"\353>Y\334\325\277Y\353\267?\"\022\244\277\355\311%\277\356\361}?\363;\225\277_4?>\235\376\244\277{\216\326\276Z-0\277\211\320\035\277\247\370\363\275<\300\334\277\260\337??\271\177v\2762!\306\276\366\270[\277\377E\270?@\240\036?\252\315\263=\200/\211>\267\332}\277G\2658\277\247r\215\277\224\372B?\311\364\265\277\253\373i>\272;\300\277#\335\237?\200\373\331\277\270\265\272\277\312\000\326?\223m\255>W\277]\277}\362\236\277\367\024\301>L\372\321\2750L\033?\275\355\'\277\316\021i\277\221\264\271\277\232\232\313\277l\354\216\2764\0235\277\211\221\271?\233\263\317\277\223[z\277t\206^?\245\3603\277\366\264\227\277\372q\323>\220\344\227\277\236\276\213\276\227>\266\277-\303\334\275 \327\244\27727\364\276\215\241\315\276*\205\222\276\314\347\210?k0\257\277=\006\000\276\357\372e\276\'\231Q\277PR\317?\025\003\334?\336\305H\276T+*?\343F\334\2771\353\320?W\203w?\010\275c\276\200\231\262?\333)?\277\322\246Z\275\004\001\213\277\362Z\253?\232\360\036?\2476\277\277\364\212`>\204qs\277\302>\332>\002\236\271\276\215\316\265\276\203\006\206?\245d\222\2777T@\276\375\274\202\275\315\r\375=~\\\205\277V\035@?A\220\215>\357A\326\277\337\271j\277\276\324\311?D\364\262=\347\361\003\277K\247\300\277\014Q\212?\375<y?$:D?\241\006\332?\\j\365\275\255[K\277\010{`?\252)\305\277\331\345\205\276{\326n\277\206>\200\2773G\232?R\356\252\277\263\004.=w\300\271\277\265\031\307\277d\177\013\277h\321\275\276\222+\222>N\251&?\245^\314?w\353\203?\005\347\020?\224\020\216?\235\2513>DI\303>\\.\274\277\277_\003?\256&\367>\t\357\250\277)\027\273\277qh\031?U)H?\215\215\253>T%\017\276\256\217\273\277\r\033\240\276\262\242\327?\265\035h>\005s\322?He_?\232\r\313\277KC\030\277#\236w>\326\3122\276\327Q\311?^\"\215?\2509,\276\0211\232\276\215#\223?Gn\306?\341\207\305\277\367\307\271?\350@C\277C\2722\277\307\005\234\277\036\311\024?\337\2401>\304\350\213\277\t\034\305?j\266\242?\250\262\247\277\020)\231\277d\201\237\276\326D\310\277\251\021Y\276\013J\333=\342\202\202?\217\300c\276\023\022\220\277 Kl?\314\3755\275\345Y\227?j\334\020?\tGk\277\237\250\264?\317w\256\277\357\017t\274\332\341\254>\017bZ\277\010\334\246\277\260\336c?\352M\177\276\336w\364>c3B\277\254\2256\277\300\006\242?J\311\313=\017\377\275?>Z\226?91x>3\340\241?\014\325\263?H/.\277~\242\316\276\004L\020\277\222\355\274?\023\201T\277\334bf\277\362u\001?\3010\234?\3574\274?\334{\264\277\001.\262?\350\211\n\276_\325C\277\237\216\231?\000H\322:qD\223?\334\003\371\2765\352\307?f\374\316\2776\2015\277@\264\262=\360\341\307\277\350i:>\\ro\277\302R&?\206\310e?\305\235\251\277BO>?\366\222\232\277\236lF?\326N\031\277\017_O\277\000x\r\276\360\214~\276]\254k\277\342Az?(\237\345\2767\261\310?\375\237K\277\300!U\276\240\220\243\277\310\372.\2772=f?\220\000\356=\212`\037\277 !\271\276/J\251\277\320$\232\277\260\271t>\344\222\201>\315\227\247?\326\371;\277\370j\\\276\346J8\2770\010\002\276H\204I>\340\034\345\276\033\366\264?Qm\277?\266\002\210\277\202\030\251\277ZuV?\304\366\360>\212M]\277\251\250\243?S\206\211?\371\235\271\277h\022?>m^C\277\371\036\272?>uW?\2604\340=\237\331]\277\224%\250\2760+1\277\000\325\356\273\000\016t;\234x\305\276@\270\214\275\316\2157?\210?\225\2765\252\200\277\262\n/\277\224y\314\277\"\231\257\277\330u\010\277\376\331\000?\032t[?\320k\220\276\211\255\310?(\261\023\276\240v\033\275\362\234)\277\321\246\201?N\222\'?\272\317\032?\225\234\235?@\214=\275\355\356\277\277@\256\177\275cR\217?\314\235\345\276\200\373\303<7\377\323?\001o\217?e\r\245?LZ\260\277\326\273R?\370\014\'>cl\250\277\302\007;?\352\310t?\031\t\241?eyU\277 +?\275*`j?2L2\277\224\324\326>\213\275\264?\303\307\201?!\002\332?\240\363t\277L?\264\276G\340\224?\252#\257\277\336\320\313\277\341\260\251?JKd?\235\253\254?n\262#\2776+7?g\331\266?\2471\276\277\370\035\036\277\223O\270\277\317u\"\277\035\332G\277\210\226\270\277\026\251\220?\337\326\006\277\343\221C?\267r\306\276\277\"\214\276\r\016O?V\361 >3<\313\276\032\310\264?8l\025\276f\207!?<JL\277t]\321>\274\352\327?\007\212\304?\031\2321>\275\203\230?MXV?M\246\311?\202\226\212?^H\215?\240\240\315?\3172e\277\271\031\252\277\025\326\270\277\215sD?\360\217\332\277Un\323?U\314B\277\325[\267?\315\265r?k\345t?s\364\203\276\220\355\304\276^\270=\277\211{\276?\367\001-\273Z\377\000>\031\200\211?Dr\332\2774\"\274=\255\357\001\277\367\313{?G\371A\277\010lb\276\230B\257\277\327\341\262?ddI\276\361\177\335?\243\242\317\277r\316\230\277[m\254?\321s\211?1\224p?\202s\220\277\365\251]?\225\032\251\277\343\023\206\277`\346\362\276\303,V\276\354j\232\277g\320\240\277\252\241\241?RV\020?\226\347\273>\3041\241\276)\225w\277$R\224?\333\226\023?\354o\374>A\251\314\276\360G\313\277u\261\002\277\360\236\211?N\213\326\277\341\264\301?M\235a?\357.1?\336\306!\275P\377\230?\331\0323\277^\273\217\277\377\004&\276\253Gt?\315\262\342\276\211u0\277&^\230\277k\236\177\277O\241<>\375\177\270?S\246\322?46\230\277\325\370\232\277\211\247\251?TIm?n\210\\\277~l\221<\342*\216\277}W\025?`\225\276\2772\237\224\277l\270\224?\r\033\271?7P\376\276D|\211\276\037Lp\277\230\033\272\277j\225A\276\002A\247\277.\327\216\277\"D\207\277\t\350k?I\210\246>a^\321>\333dn\277\263\014\265?\224\214D>,\320\242>\323\210`\275\261\217r\277V2\033?\r0\002?\375\224\032>\371I\007?\250X\026>`_<\275NT\305\277\302\376+?\243\213e\277\024b\212>\240\276\262=\302\253R\2778@\217\276l\325\373>C\264\262?\360\232\332\276\326\206\210\277\000Mm\277X\215N>\302\234W?\033\347\213?j@\261\277Z\256H?\264\"\232>9\024\330?\230\364\307\277M\021\215?\274\013\007\277\202\333d?\200\206R\275\372N\232\277Lc\222>l\376\230>J(O?,=?\277\213L\240?\217\236\301\277\354j\324\276\210\177\307\277\204v\247\277p\241\r>\262\006\\\277\264d\361\276c.\273?\226T$?^\024\222\277\360[t\277\322\215;?\200\353\355\274\327\332\220?c\207\322?\202xy?0\203&\276\212\233\230\277]\001?\277V\027%\277-\177\252?\"\\\206\277\265\r\226\277\220B\362\276\260\004\274\2770\270\357\276\336\3573\277\276\273\202\277(5\'\276r`\n\277<X\323\277\203\366\306\277\2419\331?}\345e\277\347\221t\277\350\331u\277Rd ?G4\244\277z\3357?\tZ\274?@c\314\277Bnd\277H\300\203>p\265\215\277\346\215\"?\350b\334\276\027q\200\277\177\220m\277*\341u?!\023\302?t\272\317\276L\363\230\277mj\230?Mg\236?\261wU\277\341\253\217?lx\307> )U\276d>Y\27790\267\277d+\303\276\262\267.\277\210~\222\276\264\375\342>:\374G\277rTP?T\231\236>\014b\371>\244N\200\277\216.\001?`\300@=)\372\211?`\016\303\276`\227a\275er=\277~\177\020?Z\351+\277\313\024\235?\261\305\206?\250f\220\277\336s\245\277\216\361\270\277\362\366\222\277\331^\210?Dh\310>\020ID\276q\221\316?\310T\"\276\200A\312\276\2131\214?\023\255\325?e\361\256?Y\222\322?\374\205\246\276(7\210\276d\372\204\277\0178\270\273h\270\021?R\203t\277\324S\001>\322\266\031\277q5!>\341C\265\277\374\252\265=\276\271\222?\222A\375>\262O\252\277\302A!\277\014\250\253?\335\2416?\306\356\221?g\347F?2l\n?\245,^\277\2650j?\276\005\335?n\364b?\354\222e?\352\217#?\217EV>\341\356\264\276X\243\257\277\313\000\216\277\213P\246?\r\250\263?G\261C\275\323\322e?\253\346Q\276\327\224\200?\337\316\352\276<\376}\277*\315\275\277!1\311\276\r\007\033?|\276\021?sH\313\277\237y\262?\023~H?\"\316\026?\342\203@>8+U?m\\\373\276\026n\003\277w\236\217\277~y\013\276\315x\273?\352\370\030>\347\253\300\277\232\025\">\214\322\242\275B\247\277?\002u><\201V\226?@\340\025?\262\006\272\277\257\373\301=\376tz\276\014\221\226?K\345\311\277\276\212\314\276b\030~\277\225\320\273?\031\231\225\2760c\315\277Q\316b\277D\231\016>\206\234R>\376\303\364\276Z\321/\275I\343\255\277\372\232\036?\016\201\033\277\260{~\277\217\260E\277BR\031\274,Q\302\277\200\360\010\277F\312\317?\0207\237\277\325/$\277\223\325\215?\245\007\266?)l\030\277g\265\177\277\245\257\211\277\222\027\216\277\204\360K\277\270\367A?\306\265\261\277j}\200\276\331\373D\277\306\363\352\276V\345\014\277zn\217\277\331\337\211?\\\263\026\277!\030\034?\300U ?\231\374\306\277\226\207\263>\271\232\224\277IX\252\277E\205P?\010\030p>\241\343\206\276\304\231\351>8\304\352>\0306\244?\367\375\020\277\371l\005\277\267e\210?K\300\261\277\rh\267?\022)\031\277-\252\202\277\373\266\207?\023\370\207\277\234\177\277>nF\316?Yg.\277(\205\266>8\016\272\277\022Z\021?\312\312\210\277\253\233a\277<\255\343>/^\212\277\033e\253?f\233-?\324\t\265\276\205\n\306?\000W\375\273*\367u?\373x\242?\202hv?\340\347\346=z\031s?\034\331/\277\004\236\203>\032\306:\277 \215\240=\212\265\327\277\374x\021\277\312D\257\277\361\221_\277\316\275S?\004\265\345\276\3030D\277;\330\242\277\374\360\355>8dZ\276\212\311:\277\306J\233\277qr\263?p6\257\276\200\262J\2750\310\347=\014VR\277\023\\\335?R\370i?\252\310b\277?\010\304?\213\n\200?\277\330\314?\231\364\255?\310LL\276;\216\302\277\373?\222?\320_\220=^9R?=\033\250\277\232\'\321\277h\2435\276\273bP\277\332P\327\277@\313\326\276R\017d?\221\356\244?\226\327\216\277\035zP\2777\002\252?ru\330\277\307\257\324?\026\305]?\240\334\371=\013\205\327?\322\344\202\277\276\222I?)\334\204\277u\305\256?\212sZ??!\317\277j_\n?\212\274\246\277n\"F?\3466\273\277\254c\302\277D\351\230\276\221\321\273\277\204\311\373\276\230\277\204>\244\037\345>\\\\\334>\300\314@\2768]\337\276`\277\242=\316\204\323\277$:\320\276\331O\321?\346\265(?v1\263\277\036)\033\277\21005\276\215B\325?N\1779?\3335\204?\2036\227?\014e\255>\250\024\032\2763\311\201?\034\341\250>\300\0346\276\3373\276\277\216\202\"?\\\205\270>\314\306\212>\310~\240\276\276Ct\277\276\256\247\277\212v}?,s\332\277\274\373\244\277\353r\276?\366{\277\2774\214\356>n\211\202\277$\305\237>\376sn\277Ql<\277|\267\274\277,U\321>^1}?\200\302\255\277D;\276\276\321\306<\277<\307h\2771\216\226?\345\020\255?\254\317\036\277\200y\221\277R\211c?\345\301\226\277"
      }
    }
  }
}
node {
  name: "embedding_rnn_seq2seq/rnn/embedding_wrapper/embedding/read"
  op: "Identity"
  input: "embedding_rnn_seq2seq/rnn/embedding_wrapper/embedding"
  attr {
    key: "T"
    value {
      type: DT_FLOAT
    }
  }
}
node {
  name: "embedding_rnn_seq2seq/rnn/embedding_wrapper/multi_rnn_cell/cell_0/basic_lstm_cell/kernel"
  op: "Const"
  attr {
    key: "dtype"
    value {
      type: DT_FLOAT
    }
  }
  attr {
    key: "value"
    value {
      tensor {
        dtype: DT_FLOAT
        tensor_shape {
          dim {
            size: 224
          }
          dim {
            size: 384
          }
        }
        tensor_content: "/\323\214\274H\357\014<\245&\314<\341\320\245;$\232\327\272\2041\206\275\276~M\275\264xT=c\013\316<h\310%\275\230\220\325=\343\317\022=L\\\315=\007\320\335<\250\016\324=\322\225\225\275\r\024B=\316\030M\275\227Hy<\374\t\315\275h\037\207\274\036\352\314\275\366&\3169\364\250\373<\225\304\210\274\364\335\331\273P4\245\2759\003\256=O\307\342\274\266S~<\370W\233\275\343\266\321<\361l\021\275Jg\260=@\230\333=\034A\037=\245q$\275\202\032\236<\377\244\221=\005W\010<\325$c=\243#\273<\017\255\013\275\257hA=\230K\257\275lJ\347\273\227\327b\275\241\220\351\274\351\323C\274F\212\363<\226\250\206\275;\025\022<;AE\273\332\343\216<\322O\004=\277\031\217<AD\025\275\000\332\226=\340\024\260=,\253\342\274Y\237\226=\341\345f\275.O\216=>\027\300\275\001q\216=>\270\226=\353XX\275\032\010\361\274\0021\273\274\267q\026=\036e\256\275$o\213=\304\246\007=\220W\224\274\200z\313=\304T\224\275\344\010\351;@\372\222\274\373C\023<\276w5\274\3209\035=\211.\270\273\327\330O\275\034\177\213<\026}k=\346\344\221\275O\370C=\236e\220\275\276\244\256\275\'T\264\275&\217\326<\261\005\222=\246\350\026\274Z0\272\275F\306L=_\033\274\274\325\275\342\273\347/,=(4\310\275#\232\310=\037\215J\274\250\025\331<\304\303u\274\020W\231=\345\245\231=\034\335\223\275\3070X<\242\252y=\031z{\275\001A\200=!\316\273=\250\205\007\275+\364\220\275G\t\020=\375\375{\275\247W\\=t\346>\275\252\365\325=\235\256u\274Mg\017=\331\021\264=\352\002\240<\274;\247<K\270\217\275\345Ku\275,\347\222\274\234+\233\273\253\222#\275\276Xl\275\217h\304;)\332\002\275\330\"\\\2759w\234\275\303\322\204\275:\007\263\275\017\260e\274\241fC=5\2259<\341c\271\274\373NF=\224\\\200=<\031\035\275\265J\306\274\202\263c=\362\341\214< \320\024\275\266OY=\343Km\275u\352\270;\203+E=}T/=\377\370\213\274\367\036\237\275b\336\222=\'p\332\274\350*1\2753\005{=q\321\333<\311H\354;(;\016=\341P\211\275#\026\271\275\223Hm=\313E4\275\351\002\025=d\010s=\032\320\200\275\3670\246=`\031\324\273\337\377\301=\262\001\213\274i\017\031=\034\365<\275\313\032\372<\326.\306\275:M4=\322\227\226\274\354\327\352;\'\236\005=\356!\265<O\231\222=w\310X:w\261+<\211\205\201\275\317 \200=[\227\203\275\370K@\275\t\r\372\274\322\213\365<\223\001*\275\301}\323=\363\367\364;\372\263\200\275\315!]=\204\345\017=\262\252\254=&\266R=DJH\275\372\312\204=%\220\010\275%\255[\274\371\202\r\275<\207o\275[0\233\274K\031V=a\267\242=\347\326Y\275\235W\317<\007o\022=\277;\310=\372V\002=\253@\245\274\3424\313<\327k\016=~\004\203=\2012\210:\220B\245\275y\275\203\271\225\333\261=\214\323==\035\n\254<lGx\275-\317\240\275\177\332Z=\221\200\276=0\377\274<\255\233\313=\002\333\263\274\266\'\353\273\236\276\230==\034\023\275\005n<=\317\360U\275\244\326*\275\310C\367;7\237\311<\274D\210<\365\377t=(\277\246\274\363\326\266=\275\314\244=-\227\335=g\246\350\273?N\373\274\273\336\254\274\356k\264\274\177m\031\275[\260\321\274\352\201\241=8:}\275K\254\010\275\317\313\300=\262\355r\273\357F[=\3240\203\275\363\334f\274\343\330\313=\331m\371\273|\362\216\274\226a+=\2423\301=Z\311x=\202\264\260\275\302\326\311=g\267c<u\315%<\366\367\215\275A\362\307<\232\2100\275\t\tF=M\023F=aS\275=\356\361\003=\257\005\220\275\363\271\212\275\331\330\277<\246\217\213<\272f\237\274\023\0351\275\225\206\213=\322E\005\274r<\321<\201\035\031\275\362\200\203<s\231\300=\266\337\267=\334\267\356<\250L\224=\305\266I=\307F}\2728\377\023=\257\205\256=Q\323\317=\371\275\204\275\301H\247\275,+\241\275P3f=Zx\210\274\301\256\245=\032\323\205\274*\233\316\274h\201\265<\364\216\206=\265\362o=`\337a=\350e\226\274\342\rh\275\201E\245\275+\205\220<\252\004\241=\350P\246\275\000f\302=\350\377\206=\320\365\270\275\321\037S=y\205\211\2758\227\276\275c\177A\275\326v4\275j\362\215\275G\037\301\272\233O-\275\014\277\311=N\007\030=\342\220\255=X\322\315\273&@\375\274\264\277\"=\302-\202=:\342\227:\316\231\241\275p\222+=J\254\360;\323hF<U\277\205=Hpf\274\324u+=N\261\255<\232@\270\275\326\005\323=\217fk\274\200\325R=W6\005=D;\214=\022\313=;\262\023\367\273\232!L\274c\356\240\274?\014:=\363\317\251\275\332\246;\275\024\304i=\361\231\222=\233\364\201\275\270Q\n\275\321\325\253<\216T\035=\210\220)\275\305\002\024\275=\343\214=\371\214\275\275\242\206\032\275\016#4=EF\300\275t,\272\275\001#\206\275\0219\257\274\363r\303=\274l\203\275\276gY\275\200\367\347<\347z3\272\377\342\006=\254\010\323=\246D\236\275\024\371\252<\2722\201;;-B=68<\2758\242\022\275\031\261\225\275\313\364\244=g/o\275\037\246\264=\001\271[\273V\241\223\274I\332\270\275\214\3622\275\004\014\213\275z\214\'\275\245*n=X\332\222\275\300\364=\275\323\256\000\274in\202=u\244R;\247N?= \300T<-H\222<\225,\016=t\352\204\275\305:\261=\332\235J\275\013\315\201=\302,\260\275>\333\227\275\031\325\311\275\250\371\314<\326\214\006=\236\027?\273\036/T\274\224d\253\275d\341\205\275DA\274<\277\253\"=\372\275\201=\rjV\274\326\003\350<\374~x=M\306\215\275\327i[=4\006#=\321\351\202=\214\365\002\274C$\375<X<\200=(\344\230\275(Vp=\n(x\273\327\331v\273s\310\210\275\324\323\303\275\360]\304\275\214\345\262=\210\343\331\274 \323\347<\373\267\001\275\331\342>\273\353w\207=Y\311\270\275\203\322\354<\371\265\321\275p|\307\274\302\370\326=f\352\223=\273\030|=rZ\304=\311h)\275\341\000\207=w&\250\275lf\235\275l\3117=\217\315\351\274o=\276=\273\356\245=,)\317=\\\240\241\275\000RA\266\263\177\276=\220H\023\274|\214\247=\333J{\275\376e\203\275\001;\304\275\253D\212\275\3340E\275\242\302\201\275\217u\260\275[\307\236=\215\275\302=\350\026|\275\213 \237\275I\005\253=\351\331c\274IZ\205=Q\235\273=\237n\245<1\300e\275&[\017=\215i\265=\343\270\230=\215_\230\275\nD\305\275~Q\231=\231\334\347<\376\314\245\275!wd\275\0000\007=\345\346\004;ym(\275%L\032=\261W\034=\216\310n\275\320s%\271\270t\037=\354\020\254=<\276\330\273\317F9=?\014\002\275\030\023\245\275\247\243\304<2\205\262\275\036&\241=\024\375\215=\263%@=0\231\234\274\270\354\357\274\016\211-=\n\376u=Ho\354\274g\306V:i\206\260=\366N\312=\000\014=:QI\207=u \201=!\262\224<JYd\274\264L\2039\374f\010\275l*\000<\332\244\225=\\K\306\272\365\020\257\275#\316\214\274\260\325\377;\000\274\216\275\014e[=x\344\236\275\020\375\200\275\302\312\321=\205\032\024\274\204J\233=H\276\277\275+\035w=1\3163\274\332\220\006\275\207X\264\275\241\035O={^\307=u\256\r=\321\275\222=\276m\346<\014\356\264\275|\2515\275a|\006\275\224X\013\273\344\3519=\326H\202\275\211?\215;G1O=\211g\331\274\371\350\232\275sz&=\367\243k=6\360\263=\206[\310=\236\351\034=\343\032J:\315\036\243\275\006\370\250=\261\006\200\275\3343t=\010T\243\275{\n\273=/\366\254=\303]\207\274;\315\335<\345\222\206=\024\027\232=\346\276i<\312\022\260=\204\350\220=\367\217\246\275z\373$\274 \341\267<IO\373<Rm\202=Mb\352<\222\346\236\2757\023\222\272,@)\274\243\241\330=\355B9\275\265\335\316=\342v9\275\341)\304=\326N=\275\315\253\032=\232\000\217<\323\025\200\274q$\211=\345y@=\257M\211=\026\'\200\2744\254\252=\274\\\335\273/\265\272= \364t\274\350wq\274C\"\241\275\372\"\262\275\223\027r\274n\021\336;|ck=\367\222c\275\001N\251\274\013G`\275\201(\315\274\256\263^=\351\240\316\272LQ\023\273\206+\260=\244\236|<#\224{\275)\020\034\275\317\370\263\275\2379\t\275W\254\262\275\204\201\230=T\277\326\275,\201=\275U\254U=#\355\265=\367\315\267\273\250\310\266\275\253@\236\275\242\016x\275\350\201\275\275,\215)\275\235\220[<\362\007E<\"\202\234=\233\332\3129D\332B\275O\207\362<\022\005\334\274lq\235=\354w\233\272\301\227\005\275\247\025\204<\337\244\r=k~\013\275a\020\316\275\241c4=\030\314\273=\346\223U<g\274\200\274*c\207\275\275\240\231\275\313c\333=\322f$\275;\261T<\266\214o=P_\204\275\tZ\322\275E\320\266\273JB\206\275\t\256\267<S\357\243\275~\237\240=\320mJ\273$\ro;ki\213=4\272\264\275jqy<\221\023h=\315N\247;{.N<ck\225\275\233\036\201\275\276>7=\013|\237\274\014\335\227=\330\014\\\275\305\235x\275H\027=\275\3676\215\274\334\272\322<\254\317\232={\001\\<\375\234^=|\365\360;\305\373\000<\266\tV\274\313\342B\275;\221\266=\330\236\244=\344*?\275IM\244\275)\334\321=\230\010y=\234>\250=\276\316\276\275\267\375+=f\026]=|\022.\272\361\335\276\275#\014j\275\334dt\274\312\177\320\275pp\267\274\014RC=\355\037\241=k\216\261\275?rq\272\022\036\231\275\344\030~=\342;];\263\257\364\274=o\237\275T\276S=\201\307\304=\3766h<\264\3414=\254\272\266=\232\220\312\274\241Fy\275\364\366\270<>\370\343\274\210\301\321<\036l\322=\"#\200=\360\234y\275\342\343\014\274\270\004\252\275l\215\260\275\375\274\007=f,\261\275N\215\247\274\000\327\033=\225\225j=R\357\217\274\216\013\240\275r\320\030\274\031~\224=\227W\226=\275B\321=\n?\024\275\3573\262=9\274m=\371(\n<\264\0133;z9\261\275\204\364\010\274\347\021$<,\232\242=\270\016\267\274\340\314\262\275+\375\237\275\365\204\320\273C}[=i\'e\275\337*(<\332v\227\274\314\353o\275\"I\237=3\266\350\273\325\343S=6\212n\275\024d\226\275\255\006\226;\010\230\314<\316\216\214\275Y=\361<\270\200\300=\370\365p<\306\014\323\275\203\371\242=\214\273\240<\206\272\232\275\021\006\275\275\022\034\265=\022\034\256=\372\n\225\275 t\004\274\315J\205<\375\317\260\275\337\201\271\275\310\240\036\275\n\242\264\275\264\010\230\275\032k@=\365\240I\275&\206\240\275J\237\227<\2707\263\275(\263\242\275\231\306\204=\000\035]\275\300\356y=\335\'4\275\207}P\275\025\326\252<S\303u:\340\n\216=\205H\235=\350\221\241\275\235\306\031=I\002\252=\244P\014\275\366\323g=\245\214\245\275\260\0030\275\301\334\177=D\243i=a\367\206\274\316\023v\2751\362=\275/\024\034\274&\360g\275\271\227\007=IG\200\275\365~\200=\2571\203\274\356\355\263=+m2=\265\004p:\230\263\210\275\266\031\245\274\207\274\027=\255\251\267=\376\320\036\2759\262\210=\261\017\236\275\007\322\206\275\022i\263=\243V\277\274D\211\034\275A\234h\274k\3321=\006\n\361<^>\212=\234)6\275*\224G=\026z\253\275\245\013\033\275\227\334\233\273)\300\236\274?1\212=.\032\272=g\271\242\275\216\373\213=\214*O\275\324L\304:\360\0245\275\023\023\271=\347\232\321=`\026]\275\227x\306<\3277\265=\226l\211=\032\217\235\275{\034T=\324K\207\275\021^I=\225\234\265=r\254[=\006_\374<\336\001\230\275\306\315$=\307N\216=/\206\373;lr\222=\004\266{=\363\032\237\275V\322*\275\2254\324\275$P\274=\230\324\211\272\247J\353\274,\333\274\274vq@=\006F\233=\240\022\201=F\254\266\274\236\200B<L\034\020<h\337\270<\326\n,=_\"\255=\231J\202\274\335U\207\275\352r.\275\014\255\025=\325\024\230\275\313\2670\274\207\004\031\275rW\022=\3403\230:\3628\311<G\"z=\r\233\252=~\251a=\373\256\312=\323\273\021=x,\037\275]7\341\273C\202\330=(\030\214=\261\223S\275\275*\207=\212\352\237=Iq\342<\320\334-\274\237\017\232=\340\236\365\272\370~P<N\350\307\274\361\351\214=\237e\310=m\345\241\275\254\261\023=\350\301b\275T\250\233=n\261E\274`c\214=j\305\365\272\275\243\212\275=p]\275;S\342<\027\357\224;\211\022Z\275\026z\235\275Q`<\275t\264\234<\n\227\322\275y\014D=\304DY<8\243\211\275\222\334z\275\243K\002<\371\257\245=\\\334)=\021\352\275=\214L2=\377\341)\272\020\243U\274\370\314\257<&M3\275\203\336\313\274F\217\317<mM\307\273N\336\265\274\354h\017<;y\302\275\236\273\232<\220\014\330;$\377\310\275%\210\235=j0\257\273h\013\270\275\033\257o\275\302E\336\275w5\322\274:\343\006=\363D/\275\214\366a\274R\364\007<8\264\266=n)E:\nWw\275\3227\247:\356\373\005<\025\2216\275=\217\252\275N=g\2750W\"\275\263Hk=\232\232\205\272\0216\327\2745os=\000\241L=\204\366\200=\200\247\251;4X\220=\274e\342\271%\255\327\275D9\255\275bK\317=\240\271\336\275\355|g=+G\303=5I6\275:\004h\275\325\252\246\275vu\205=\332\034\233\275\222\001\260\273\276{5\275\367\002\265=%\336\243\275\260\365\306\275\010\345\220<\346\265_\275l\372\335\274\005cH<\332R2\275~\213\240\275\r5\206<\334X\230\275|\326!=\266\232?=\343\361\266=\356\373\220<\0000\025\275\366k\376;\264\335\316=]\344\242\275\341\373\216=\370\031\022\275H\326\n\274\244\250\025=\344\236\265\275v;\330\275|[\257=\335\263\200\275\035\235\200\275\222\003\324;N\036\'=\332\303t\2753<\302\275\366|N=\314\374\302=.\265\242=Iv\026\2737\277\237=\356L\305=\251\242\326<\354\237\007\275\342\205\\\275\346\005\023\275\276\275\330=M\313Z=\207n|\275\242\302\307<((\247=\254\332_\275\021\343\204\2749`\032\275\027K\306=tJ\305\274\2672&<\032\216\227\275\235\216\267\275\234)7;\216\2017=\340F\267\275\000\223\301\275\233u\252\274\330\267\273<\327\221\250\274*\034\251\274\260\320\275\275\177q9<\301\240\235=)\177\266=\024\332\215=\005\300\261\275\245\302\313\275\330k\230\275\332\222\262=`Z\225=\362\2509\275\365\226\347<\375\016)\275\370\n@<\177\2311\275\\TY\275\326\236\232=\037\347\353\274\312&}=\353R\235=\017sk\274\255\302|\275\242\271\010=\244P\305;[\025b=\353\232\312\275\372\234\221=\362\340\314\2753\014\306\275\352$~\274\216\276\325\275\242\302\233=V|\272\2756T9=\345\027\216=\013\326\241=\024\232~\275p\214\204<\327\001/=\236\002\246=\276\363\277\274V\357\023\275=\2564=HXd\275\350\237/\2754V\210\275\355L|\275\330i\241\275 \366s=pY\337\273\226\202\346\273\373.Z<\254|\237\275TC\226\275E;\217\275R\200\326=F^7\275\312\026\270\275\306e\232\2757\323\251=g\001\245\273%\225\374<\213\227\241=I>\263\274r\025\256\275\242O\013\274A:6\274\007\003\003=pk\007=\336yM=\022\300\232=\004\266\310\2757F;=\344\334k=\336\224\212\275\223k_<;zf\274\314\2555=\350v\306\275\354\340\007\273L\234\226\275Q\344R\275\023\311U;\2025\021\274\235Mt=\225]R\275\025 \211\274z]\241\274\000\036\320\275p\217\364\2749\213\214<d\250$\275\277~\205\275sN\202=\317\265\007\275^\000)\274\006\237\375;\372\007\257=\207\317H\2752*\334<\216C\254\275\2441\213=\306\342U<\366%\225\275\340\342i<\005\347\263=@\n\243\275\210s\207=s\257\023\274\230\364y\275\004\243\036\275\257Q\212\275b:\204=!\006\251\275\271\254\016=\223\002\266=\353\360\206\274(\n\201=\322\307\357\274j\377\236\2752\025\252\275\023\233\204\275v\360K=\200\233^\275\233\371\270=;>s=a!j\275\351\034\225=\033\334\353\274?\333G<n$B\274wb\023<E\221\224\275\320\336\262\274\254-y=o\266q=\322v\201\275\254\232\003\275\026\032\244\274\225\240\206\275\3139\234=\031e?<q<\322<Z!\250=H\314\374<I\225\231\275\320\234\273\275\205\305\233\275`\000\214=Y\305\322\274o\240f\2752pA\275D\360\324=\310\204g=\204\326\257=\314#\232:\256\263\207\275\255\177\365<_\'L\275\200\276\"=\363\204\202\275\177\264\240\274\370\233\020\275\342\206\336;\276 ,\275\355&\200\275;\2349=\277\232\211=%\343s<\253\275;=\307p\205\275\2721\253<\345!D\275\274kx=\350\261x\2747_K\275l\t\266=\267\343\350<\214\372\220\275\267\035e\274U\355\213=\2537\210=\231\254q=R\247*\275\311\312\304\274\200\246\252\274\330\312\227=\260\230]=\330\227\311:\276\"\300;\262\345{=\017\375\'\275I$[=\013\001u<\267\032\351<*W\257\275\025.\363\273>\220\250=\237\345d\275\'\363:<\377\355q\275\254\3611\275\211\225\216\274\271ZJ=\t\303\242\274\247:\306=\333 \341\272\341\223\337<\026+ \275\24269\275\223\220l\275|\357\032\274\006\2366\275\226z\257\275\372]I<\310C\247=\320\033\243\274\006B\241=O\300\032=\224T\303=e%\355<\361E^\275}\315\025\275rQd=\340Y\220=\377\374\241\275\002\257\024=\347\204\317<\316\262\222=H\363:=\024\276\265\274\266\307\273:r\207\031=\"\303?<UO\202<C\260\321\275\353C\031=\326\227\213<\274t\342<\271\030\323<}\356\206<\366\243\277\275\303\256j\275\264|\322=_K\264=\374\245\273=\232us=\277\317,\275\302\323\277\275;Q\022=\264\341\266=\271\\\242=\002\215\262\2751z+=\307\336\213=<\017\256\275\230\275r\274HA\300=v\353\257=\\\233\260\275\177\254\247=\337Md=\251\'\235=^h\225\272\373\247\324\275\302\312\225=\362\327^=\005.\274\274P6\r\275\206Z\211\275:a:\273\265z\315=gTb\275\021\337\021\274S\032\223=\365\371M\275\324H[=\346\365\205=(F\234=<\030M\275G\277]<\355c1<jwH\274\316\315\201\275\264w\301=\312\245V=+\352\n=\356EP\274\312G\037=t\306\"\275\242\203\257\275g\025U=\0063\223=\276\265\273=-\266e=\344\006\211\275\221\362z<U[\225=\315\243\356\274\305\225`\273.\200R\275\313\322\273\274=\3704=\375\025\256=\215\253\032<)\265\322\274\3322\235\274\327\025\376\274\365\237\262\274\356q \275cC-\275o\233\207\274\031\\\310\275\206\271\"\275!\257\300=\237\013\263<\035-o=\334Z\030=\371(\303\275U\320U\275\236\024$=\373\373\301=\311\254J=J2\327\272\016Oq=\215\265\314<7\021\307=\326\t\207<\027\\\255=5\205o\275zb\343;\036\261\026\274t\nx=\251\267\275\275v.\312\275\303\225\021=\250\316\206\274\210\366\033\274!b\r=\316\321\271=C\252\257\275\037\334U<k?\000<\226@Q\275\014uc\275\322\332[\275z\"\264\275;]\356\274\007\003/\272q\341\241=h\336e=f\334\223\27530\343<\325\224h\275{\177\337\273P\342\r<\266)\002\275\032\361{\275\344C#;\342\311\241=P\362H\275\211\255\030=~\342\234=Xd\261=<\"\275\275\016\233\206=>6-=\324\346\230;\347x\311=r\n6=\000\030\317\275\205\376\216=\375/\342<\r\277B=l8\341\274\214\201\243\275\251\024\026\275NW\221\275;?#=\\&\232\275\215\005\303\273FW\353;\335\373\206\274\313!\261=\334*\257=\0219\237<Y\234\206\275\323\371\232=cN9\274B\0050=<2*=\350\242\306=,}\264\275\221e\265\274A_\251\275\034\0374=~H\005=\260KE\275\005\337\331=\372\034a=\304\274T=\356w\247=\272\261\235\275#\273\023\275\017\001\270<\217D7=\317\224\001\275?\262a\275~\320\274=J\277\274\2736N\240\275\032\0319=\216\323\013=\214!\314<\200)\300;\274\3062<\246\373\307=\342\343\242\274\007\303B=[\373\265=\2405n\275\206\330\246\275\027D\224<\'X\275<Q\332\225\275\265H\031\273\273\3259<c\314\235=\301k\326\274\371:g=\006&\226<\203;\231=8m\224:T\335\204\274\'\302\005\274\244A\301\275\032>\005\274\305\324@\275cf\303=\314p\230=zA\220=\200\014_<}S4\274\316G_=\"Z\254=\264\036u=%Q\021\275\306\200\271\274\343\314Q\275m\026\326\274$\225\245\274\t[\267=\365\0170=\306f\305\274\317a\266\274\262F]<\260\016\221\275\274\211e\275\007\264\n=:\256\205\275c\\M=\020\235(\275\005\327\222\275\226\246\203\275\331\243\202\275\204\364\240;\017\036\220\275\334\024\332\273\231XD\275\230\322\316\274\336!\230=z;\034=0*\255=\313\341.=\331\025\202=\206R\031=g\343\330\273\026v\\\275\220;\260=w\350\374\273s\326==\333\311\251\275\315\n\002\275\t\266\234=\315\231\r\275\220FP=\030\021\244\274{^\321=\211\360P\275\261\221\003\275<\216v=\2403\025\2754\014\376<Z&\266=&\337)=\355\273\202\275\017\240\271\275I\025s;A\323$\275ps$\273TJ\214\2746:\376\274\326\3576\275Q\336\303=\272\231\226\273\257M(<T\242\213=\332)\215=\2237\220=K\t\367\274a\255\314\2750\337\320\275\354m\204\275\305H3<\255H\217\275\0039\003\275\320\334\222\275O\346\357<R\204\343\274z;\035=\246j\263=\275\t#\274\212\377\330<\274\277\032=\366\336\201\275\000W)\275\2305\255:^8\212=\033\374\211<N7\273=\032}\336<\360\237D\275\203\266\252=\264m\001\275T\000\202=\274@\233\274\333\317R=\013\272\353<\316u\217\274\2471\243\275N\321L=\202g/\275\236\235\260<\305\361\233\275*\326\317=\200I\224\273LXW\274\022dR=Z\020\251<A\201\221\274\230\324\023=\230,\204=\331A\257\275\026\310\242=\374\023\200<\344W@\275u]\326=\021\270X\2755B\244;\021\301\256\275C\267\277=\314\262w\275\272g\033=2\220{=\306\214n\275{\264(=\347\'\327\275\007\331(<\021\244t<\315\rD=CzF=\254Z\214\274c\3127=\340t\005=\"\'B\275\322\0030\275\262\236\305=T\234\200\275{\004\273<\021\025)\275F(\271=5do\275-\022\206\275\263Rn\275\303\205\324=\'KC\275\307L\266=\002\337\001=yg\034\275\005k\225=\206\254\020<C\355\223\275\005{\003\275NYP\274\342\254\007=Y\022\177\275@\334\247<\302s\340\274Q>\361<\302\006\200\275@y}\275Cn\'\275\316\"\310\274\360\022\256=.`\230;\220\214\306=[\266\237;\377\313\201\275p\n\010=\334\236%\275\303v\213=\300\212\220=[\240\267\275\342\207:=\365\353\266\275G\013\312=\310\3543\275\320\264Z\274\034\027\303\272\230%\030\2754\013\222\274\003O\246=o\r\034=v\340\306=kU\027=uC\231\2751\336`\275s}\355\274]&\202\274\361:\333\274\316\260\304\274aM\263\275X\253\257\275\316\257\022\274b%v=!\347X\275~\334&\275\322\322\227=\346`\207=J\313\216\274\212\310\215=\22540<&\\\351\273N\024\355\273A\274Y=w\372\270=\215B~<\203\031\377<\003&\256=\312\342T\275\221p\304\275\002G\274\275\312\354_<U\364\301\275R\233:=\224a\324=\237?\266<\005\267\210=\243\343$<~\362\273\274.JQ\275\303\301\372<M\247\261\274K\351\021\275\273n\n<\254O\271=,\275\3549\217\305\206\275\251\316\200\273\277gv=i\315\016\275\311\374\320\275\267\254\261\275@\327\227=\313\305\237\272\214\263\036\275\335\350\331<\322\354\217=\237\344\312\274L\325^\274>\0251\275\275\226G<\023\304\361<\013\216-=>E\000:\372\343\201<v\325\006\274\361V\263\275a\3758\274i\254\225\275\377\227\264=z>\312=XW\217\275v\321\267\275\324\034\375\274\224\255\266\275\217s\300\273;,\230<Y\370\320<\241\022D=\254W\345\2746\007W=\375Qe\274P\223\005=\3375\324=\374M-\275UAd\275\325\301\263\275\343!p\2735\310M=\215\253\312\275,\343\246=\244v\243=\344h\\=\262}\243\274?\355\244=Y\343\215=DH\312\275\237J\220\275\245\252\223=\223`p<g\315\320\272\373\305\247\275\276F\226=\nX\267<C\0178\275\370\304\003\275lD\251=2\276\232\275\004M\242=\336w[\275\214\350$=v\343,\275\374\233\316\275J{\202=\347\214v=qg\344<;\017\232\275\236cB\273\313W\253=\023\314\206\275\260\363\324=\315\261\277\275L\202\306=\263\223)\275\261\037\216=T>\177=t/.\275\304@\255=\374\276\205\275\262\021\203\274\315J9\275\233\274\203=\332[\326\2750\2255\275q\344E=x\031\034\275\344\246 \273\3542\340<\245\030\006=\017\221\252=\264\3138=pE\210=\216<\235=*\224\037=\323Q\227\275\346.H\274\010\257\366<x\346\313=\274\322u=\233\312\021=\202)\216\2740\355N\275/\023\244\275\235\3611=J\242x\275\200\255\263\275\377J\312=\350 o<R\201\226\275\017\241\265\275\254\205j\275\255,\241=-\323r=S@f=*u\341\274hTI\275\336c\177\275\300\254\221\275\233\332|=\336\002\275=\227\303\235\275\325.\213=\354\010\000\275O\020\262\275\220\263\017\273\354\336.\273\203\007\224\275\217\210G=6\240\305<\274\236\200=[\221\214\274\301\366\237\272=\255\310<\203\033\310\275m\030c=\353\353\224=s\003\014=*a\213\274\367\317b=\336>\362\274HA(=V\322\225=O\235p=\310&\273\275\212,\251\275\031;\245=\260\210\274\274iL\207\275L\352a=\343\333\302\274\266\316\273\272i\263\300=\247Z\261\274\334:i=?\001\207\275q\031r\275\211\310q;\350w\241=:\232\214\275\027\266\263\274~\036\274=\2350\275\274\324\321x\275\010\327\277\275\203-\n=A\202\261\275w\266\007:\013\207\272\275p\303Y=AU\242=\320\245\245\275@\201\363\274\312d\255<\340%\203\275\260\331\264<%:\252\275Z\212\242=\204\205\331\273\"A\270\275f\217j=\240\002o<\020\321\341\273\033\210\345\274OKe\275L\252\300\275>2\354\274\022\311\315\275=\371\304<E\245V=\353\365m\275\244\200\303<\226\035\327=ab\303=\314y\257\2748\360\226\275\207\002\324\275\310i\225\274\263\353\260=\027\347\275=\023\253\202\274I\204\272\275\334\331\323\275\236\351y=.\321\343;\205\3256<m7\237\275\037\266\315\275O\202\302\2744\'v=!\350\003\275\nn\323\275\206R\217\275\000\032\246;\020\345r\271Gs\020\275e,S\275\335\333\326\275\270y\032<\362$6=E\013$\275!\301x=\236v\255\275%\353\210\274{[\004\275\244\016\317=z\2004=\262\221.\274f/\265=8#\210=\312\020\312\275k\270a=H\350\217=\342\232$\275gT\220\275\247\322?=\373\251#=\206\212\231=b\275\262=0\214a\273\252P\243<\375\216\274=\222\\\262=\224\005\203\275y\314(=\247\030\001\275\273\311w\275\"J$=}i\003=\340\367U\275\334\343\256<\237\357R\275\'v\027=;^)\274\361=\266\275\306\217\232=\262ge\275\364\033\246\275j\215}\275\342L\357\274\277\361.\273\354\210\270\275\032\252\256\274VPd\275.*\212=@\366-\274\331Y\342\274\256\221 \275U\301M=o\267\217\275\032.\245=\220I\327<\265\023\302=\240\340\"\274,V\214\275\275m\201=\323\335\207\275\372\345f\2752\024\315<`\255\206=d\000\306=\\!\270=\\q\210<LT\255\275o3\034\273l\261\313<\347\336\010\275nj\006;\314\227\220<\370A\201<$\277\267=u\366T=\002\234!\275\230\2431=\232\320\301=\026m\022=\2701\204\274L\215?=_\207\177\275\2117\223\275\363\316i=\302\356]<q\232\002\275LGg<\3157\235\275\317\344\266\275k\3060\2736<b\2758\276C\275\200;\324\275\300\320\314\275\035\300a\275\030\3211=\333\373\203=\251C!=\002\263\204\274\237l\257\275WH\227=\223\253\r\274s@o\275J&\312\275\222H\014=\026v\024\275P\351\320\274\373\331\363\274\350\307\016=\363\215\214\274\344\303\226=2\003\213\274sU3=V\362A=\336\0032\275\246\202\000:H\307\230=E\360\374<\356x\311\274\277M\013\274e_\256=\214\217P\274\237\2764<\204c\245=\026\364\013=\271\256\241\273\251r\207=\244\272\234=\243\371\r\275?\325*\275PDN\274?\027\034\274\322L\027\275\305\265&\275\335$\236\2758\027\204\274>\347\263=\362^\014=\234\315\223\275b\345\211=#\270\220;b\234\304<l2=\274\027\210\032=@\326Q\275\266\033\257=\304G\007\275\344\217\242\275\231\204R=\304\300\220=^\322\177\273\324\257o\272\206\2424=3\244\177=\355\354\211\275lX\234\275\320\327\233=\3723s=+9{\275\350I\232=\376}\300\275\263\240\214\275\373e\215\2750\3204=\031\352\324\275d\273\314\275\261\217\367;Kzg<\223|+\275@\236\257\271\225\357m\275\316p\211\275\322D\344<\365\330\212=\214E\2419\2331}=^p\351<\016\230q\275\023\210\320\275\264\241@=\027<C\275\225Z\272\275\264\354\277\274(2\216=m\264\314=c{v=\r\230\246<\323ZN\275\230\354\224\275\366J\n\275\302\006]=\216W\025\275\244>\335\275\314/F\275\207\037\230=G\214\205\274l&\213\275\323{o\275:\355@\275\24256=w\345\275:L(!<Oq\236\275\001\377m\275d\353\301\274\244\325\224\275\312\211\307\275!3\005<\240\352\214\275\355\275\333\275\253\004?<{\n\234\275M\233}=X\247\005=\177\273\322=\307\n\300<\317f\261<\335\344\020\275\255\201\241=\251J\262<Vov=\246\016\312\274qS\252\275\303\205N=r\277\274\275\307g\'=\013\315\241\275w\261c=g]{=L\353\232\275.\323d\274\352 \027\275\270%\002;\225\317\220=r\213R\275Q{\222=\005\220w<E2\230\275\302!\214;xT\207=\255\300\257=\317\210r\275\272`\200=Ld\250=_[\222<\321\213\234=&\374\"\275\315R%\275\213T\307\275\034\037n\274\243\035\261\272T\2242=Jh\314=\347\345\232\275\364g\002=^\372\254\275k1\205\275\317\356\303\275{#\310<\371\221\213\275\364\261\241\275y\342I=\330/\363\274\306\317*\275\324\243\301\275\336y\243=s\322\273\275>\376\321\274\267\261\257\272l\376\303\275}\265\302=\370]P<@\016y=rY\304\275\207v\205\275k\247\274\275\002\344d=\026?@\275\303\334\222\275\300&`\275\247\272\251=dB\236<`\313\211\275c{\232=\035\254h\275,\016\200=\203Ij=F 5\275M\350\236=\371\204p=\200R\323\274\216\237v\273\2468\225\275\3729\314\274\220\021\260\273fG\236=\204t\244\275G~\334\275.\356\234=J\224\226\274\360\000{=\267Z\005<\037<i\273!K\275\275\344\275\225\275\241\320\202<@\"v;xn\213\275\341\025\373<1\344\263=\204P\304=I\214\000\275W\327\330<\345\223\224=\265\304\266\274\201\216\275=\304I7\275\367\2429\275\373\014\225=K:>\275\260\035\256\275\211\365\201;k]\331\275\337\305\244=\301\215\230\275\377(\210=\3634s;\313}J\275\205\260\247\275/\377\331<T\272J\274\025Z_=)\230~\275\363\255\221\275\304J\317\275eg\275=aP\203\275\231\033\226=\220\271\t=\2328\243=\033\320\265=Q\024\203=6\302\255=\252\013\242\275%\002\311=\300\275\027\275\316\246Y;\244_x\274\352J\327\275\333\021\320\273\207\327\234\275\232$\226\275\212+\302<\r\236\224\275\274\227w\275e\345\265=d\022\333\275\237@\237\275O\007J\275\346\017\230<V\005\212\275`\324\263=\017\317^\275Lp\207\275B\372F\274CZX\275\3215\255=O\004S=\225\0068\275\270\337\242\275\002\0028\273\336\"\236\275@\246\305\274\354BA<L;\006\275y\375\222=\336\323\241\275\343\"\260\275>\311\201=\177C\273=\375\360[=\334\036|=\207\262z\275\257\376\252=\226T\250\275*\036f<j\372-\275\304\214\207=\\\002<=P\313\257=\",\312\275\212ER;\324\237g<7\314w=F\3163<P:\264\274 \346\223=\303\300\205=3\260\343\274b\203\257=\035\253(\275\270v\026\273\026|\262;%\003\014\275\357\321\257<6\353\007\275\277\032F\275#\355\262\2759gh=\003\273\022=G\346N\275\023nm=#\252B=\2555X=f\235\222=[\233\216=\220[\340\274\344\341v<\305\226Z=-\351\233<\302\367\210=E\306\200=\326\304.<\2661\225=q\372f\275w\001\343<\007\344@\275W\345\271<\216qj=\262dV<\203\345\017<\2057\324<8/>\275t\t\220\275\306q\236\274\364f\020\274Oa\261\275|s1\274\361/>=l\262\245\275\n/\203\275\307n\206=W\245\226\274\025\\v<a\351\270=\343Sc\275\331\341K=\372B\214=\213\255)\275\361\361T=\257q\276\275\306\271\337<\362\372\n\275\017\000\201=\220T\272\274>S\246<\343\"\236\275\261cu=\327/\312\274\033\207\316=m\220\222\2748m\271\274\313q\256\275[m\014\274\307m\\=\241\022Z=a\014c\275\245\024\215=\367_\202\275\212\220\032=\206-\315<\034\035\301\275\001\034<\275\034\307`<\006}s\275}\247\001\275\344ji\275F\005p\274\250R\226\273\333\311\272=h\375M=~\363\030=w\256\243\275\264\031N\275f\273\370\274\024C\364\272\313&.\275\245s\026\275\243\314\213=x\315u\275\256\200\215=\377\355}<\000o\245=\310H\034\275;\034\273<\344`\220=~T\367\274_\205x<0\365\323\275\361\276^\274\035\313\240\275\250!\230\275\372m\222<t\020\222\273\327Z\213<\361\200\263=\2524T\275\200C\261\275\023\272J\275\221\332x=\2330(\275\'\010\265=\275\007\314=\304\316\304=\025t\206\274\376$o=3\323\205\274b\206Z9\0254\221\2759\377\236\2754U\263<\356\263\007\273J\314d<|\343u\275g\037\306=#\007\001=&\333s=0\203\231=35p\275\010b\211\275\035\247\243<;!\275\275\020\324\237=(\373\251=%B\276=~v\264<\363\270\207\275\334\252\300\275\330%G\275Y\243\340;\321!\260=\0264\210<\327S[\274\3701\013\275\377\032\230\275R\tG;\203}\312\275\023]\320<\212y\203\275%A\n\274#\rW\275*G\\\275~\244\225\275+&9\275o\017\243=\333\0233;\345\024n=kH\354\274\337i<=\241\231&\275\365\272v=bS\322\274f\301\210=@\220\266\272\214\255\234\275\264\017\271=\236\241\243=\230\013D\274\357<\220=\344p\213\2757G =\3604\301\275#\3230<@\r+<\356\032\\\275%\241\315=\"\367o=7qH\275A\017)=D\272\207=\243\261Y\275\306r\256=\024:R=\207k\310=r\353\230\275\247\272\207<\353\210\016=\312l\312\274\346.\255;\005\352\310\275\226\264\323\275\221E!=\025\024\037=\013\262\025=\327\300d\275(\3663\273\344\316\271\275G?!\274N\275\351<Y\226U\275O!\333\274E`\223\275{\2275=L\3045\275\244\326\246\274\366;\311\275\236\273\257=Ex\214\275\013C^\2752\352O\275u}\266<\326\341g\2759;\354\274\013\311\251=vE\365<\230>V9\035\324\224=\275\265>=\342\257\250=\371\326z=&\036\372<\2614\256=k\270/=\255\330\243<\347\253K=M\325\243<\264\236\312;\256B\233:\2311v\275f\000\222=\"\222\t\275\371\315\261\275\nR\202\275Y6\006<\250y3=M\'\022=:\215\216\275\227[\356\273G\205g\274]g\327\274\242\0168=Vg\017\275\304[\256<\001\016\277\274\004hN=*\317\237\275\013\325\243\275\027\361\356<\330\027}\275\211\250\267\275\250\3740\273<\254\216\274_\"5\275K3v=\250\314;=/P\227\274\356\314\027\275V~\260=\271\364\301\274=\2455\275G\016$=\356\372\220<\304\227t;\242\317\002<y\337\266\275\306;\352<\312G\252:)X\261=\207\3133<\0034k\2746\025\263=T\223\251\275\220\025\000=\227\037\244=\212\260l\275\326[\305<\316\325\013=KE\014\274k\272\266\275}h\004\275\341L\243=\273\327\233=^L\025\273J\332K=\002\375(=\332\320R\275\273\0218=\274\261s;\330\014i\275\341}T\274\276\252Y\275\n\001\241=\\\212\255\275\201+i<c\220\366<\315\226\245=\302\361\314\274\027Z\270\274+O\364\273\006O\213=Y&<=\216\334\222\272\032\232\312\274\n\272\271\275\261\213\225=\3718\202=\325Y\205\275\301\241=\274\251>i\275\307\265\037\275\0263\246\273\237e\316\274,\350\247=%\013\271=\023\201\177\275\273\351\026=u\244\207=<\021\315\275\344D\227\275J\365\255=\021\350\310\275w\346\326\273\306\022]=\263\353\246=\233\247\217\275%\3006\275\313U\230\275\326\201\327<\260\003\306=\365\213\220=>\233m=AQ\375\274yG\355;\255||<\310:\\\275\021\266\273\275\311j1=\024\237A\275\331\341\271\275\225}\321<\201\233\300\275,s\243<^\236B\275\360\316\026\275\203\345R\274\2758\325\275~\206~=!a\306=s:V=\235\n^<\332B\335;\371\341\033=\212/\010<<\346\242\275\274\2116\274\242\245\311\275\263\375a=\026\312\263=\351\025-=\351\342l\274\361\316t\275\240\013\357<\221\364\311\2755\253e\275W\266U\275i\007\247=\203\346\266\275AI\321<\311]\201<g\240\262\275\030\365\246=O\231\251\275y\337\225=\227\302\025=\004|Q=\376\022<<R\266\000==M\306\274\033\037\"\275H\354\334\274a\320\023\275\235\256\201\275\212\373\217\275u\300\261=\251\\\221;\203Y\255\275a\030\013\275m\226\235=\376\252\243=\353t\215\273p{@=y\036\212\275\257AD\275\036\222&\275Q\240\265\275n\002\323\274U\312V\274h<P\274\n1\217=Ms\'\275\014\n`\274\266\rU=\2725\264=\217\"\014\274J\245\235=y\365.=g\030P\275\017\213\264\275\241KS\275\316\352\240\275\372C\207\273\233\021a=\003\305\212\275\264\315\n\27451(=5\0275=\241\355\344<\207\230\235=-8_=b\311\276=\231\265\202\275f\321\324\275X\307U=\335\2236=p7\276\275$\302\202\275\003\373;\275\216\304\032;\005;$\275g%\262\275+\204\340<\336\351\255=0\272\014=\277U\366\274P\300\307<\371\021\025<\000N\t\274\207\315\035\275\271\206\271=\251q\232=\307\016z=\010\002\242=Z\261E=\317\276p\275u\000\214<.#L=\341P\004=:\250\302\275BZ\224\275\3228\236\272]\3251\275\220)g=\217C\224=>\215\t=\262\373Q\275\234lR\272\241A3\2741\310\274=[O\314\274\3147\206\274a\207\211\275>\022r\275\247(\206=\272/\251\275B27\275\330W\223\274\002\266\355<\231\272\004\275(\365B\275\273\305\251=3\013\020=sNM=\225\\\222=\354\233\321<\023o\346<D\235\251\275\340\313\023\275\002E\331\275,\354\264\273E9\210\2752\177o=ba7<\003t\326\273~{\307<\221\360L=A\025\304\274\013\036\205\275`g\215\274F\013\226=\007a\033\274\327t\267\275\317a\236\275\245\323\252=AQ\220\275\377\343\241\274hq\271\275r\237\016\275\274\230v\275\364\026\342<\212\207\035<n\333\231\275.\336\225\275*\n\200<I\032\300<\242\221\020\275\265\334\260\275Vjw\272\210\035\316\275\242)\327=w\020\364;|Z\005\275\0160 =q\354\225\275\t\377\232\275J\ta\274\330c|=\205{A=\262\254#\275K\230\323=\310\324\251\275\234a\243\275+\273x=\315*\232\275,f.;\030\215\225\275\022Km\275\004I\217=\006\313\243=p\211j=7\020H\274!\270X=\024*x\2756\260\241\275_\270D=V.\005\273\315x\236=hK\261\275z\355\224=P\272\037=\026\320+<\253*\003<p\240)\275>\361\222=\333\306\220=\205\337\266\275\220\316\032=\350t\244=\202[T\275Ny\346<XwG=\206\252b\275\343OU<s\255\260=b9\246\273\302?\317:\252\252H\274\272\203\310;TE\237=`hb=\"\276\240<\351\014\316\275\375\252!\274\320\323\'8?\201d\275co\306\275\337\361\371\274\236\002\200\275\261\211\026<\330&\230=\272\"V<4F\367<\'\006\026=\350d\n=\273f[=\244C\201=\251\027\221\275\236\253\247<\227\024\034=\272\323\014\274?F\305\275\330q\244=\231\026I\275\302\276\224\275\036\230\314=\275\373\030\275O\320\370\274s\310T<\004\322g=\342m\311:}\346\034=\352f.\275~+\366<O7\267=\216\333K<4Oq=\375B\245\275K+\325<\203\303^\275\363b\217<\"\221\240=\241\324\305\274\305\367\235\275\360\345\251;y\003\271\275\212\355\257=\273\317\035<v\031\212\275X\221\366\272\010Y\"=\004;i\274\251+\230\275\036\266l=9`\205\275\275\337\243=\271\013\021=mQ\013;\371\240<\275>o\273\275B\314\214=C\007`=Q\250\275\275\037\301\274\275\326\313\305=\301\257\247\275\313\254\244=\231-\020=\010\370\223=\301\354\311\274L$\007=\336\274Q=\215\356\323\275\365\213Z\275\355\350\245\274\345<\304\274\027\375\316:4@\245\274h\325\243\275yr\270\275{\034\"\275tC\027=0\202\021\275H\025\224\274\343|6=\221t\200=\367^\377\274\203\242s\275#\244P\274z\226O=\354R\302;\353\361\021=\337\251\242\275\315\024\322\274+8\356<G)\271<\016H5=\235\035\373;I\000\312\275\310\201\310=\r6\002<\311#\340\274-\235\336\275O\036\267\273x\032\334\275\216\0249=8\374\275=|\204N\27550\264=\273\353\006=^\312\333\275*\035\202=sj\211\275/9#<\034\377\320\272,99\273do\006\275\234\263 \275K\037\333\272\220e\210\274\237\027\n<j\225!=\345\033\002\275\t\035\201=#\312p\275\365\264\231=3\204\221=\377>:\275\327\035M\275_\255\006\2758\364T=\334\td=5-\255\274\375\234m\273\270>\257\274\261;\202\274\204\237\264;\357\n\211\275\272\225F\275\212V\271=D\251\230\273|6\245=\t\030?\274\022\221\302=\021\022\255\275\001\264\225\275E\242\202\275dY\310\275\312\024m\274\244D\257=\376\360\274\2759\335\240\275\3053\034\275\036\371a\275\'<^\275\361\025\244=\032\336\264=\260P\204=,\005\326\274\270z\214=\300^\n\275\243v\331\275\2006\006=\370\326\201\275\220`\340<zs\227=\340\257\261\274t\006\253=X)\223<\251/\313\275.CU<;\025\245=\243\312\375\274\030\344\232=c\262\354\273J\273\246\274!\210\250<S\210\232=\314\212S9\273\277\317\275=Wg\275\225\357{\275]\212\020=\2308\274\275\225H\233<\310\312\273<v\204\245=\327\312\274\275m\033j\275e/ \275.\253b=\036\322\023\274\255\2679=\3166G\275z\330\321<\305\212v=\222:\214\275\007\026\022=\237\n\225=\003D\373\273j\316_\275l#r\275\305\307d\275\301\023\267<7\351-=\007\037/\275\265n!=\035\300\244\275N\347\313\275\365Bz=\221\006z=\023\017\243\274\002\214\000<\250\2214=\314\006\377\274\252\'F\275J6K=Ev\244\274\345\340\324<3\004\226=Wh\210=\334\216:\275\276\216|\274b\227\202\273}\324<<C\313\037=\016\'\025\274\353oE\275Z\270\326\275%T\230=0\220|\275):\204\275\177\370\261=?\375\246:\307o\'=\321\002\343\274\304\000b\275P6\234=\241\307\212=\275)\021=\016\205\005\273\313S\266\275\233-\255=4t\330\274 \230\241\275~^\022=\004:\240=\261\247\335\274\211h\333\274(\033\"\275\201}\264\2756&\336;p2\305<\300\003\306<\224\322\332\273\336o\025=\216\032\251\274\253\\\272\275F\355%=\353cy\273\370\214\362<\305\365\370\274|\263l\274\273\332\243\275\203}2\275\372\365(=q\357><\342\221\261=P\372\373<SW\221=i\375R=\2663\237\275\244\315\004\275\277S\266\275\273L\356\272C[\243=\247\262m=\034\342\214;\367\366 =\224\272a\274\317\207\246\275M\272\340\274\035\2437=L\361\212\274<6\034\275y\377\"=\377\375\247=R\363-\275\340R\333=U\230\236\275\033\033\316\275\242]+<$\031|\273\275\230d=C\254_\273QsN\275\326fp=\357\263\204=\255\233\"\274\325\321\336\275\201}\000=\006l\345<\365\223\225\274\223\036\031=\344=1=\022wO=2\345\237\275\361\232\006=\033\035\207=yZT<\013;\356< ;\246\275*\347\345<\225:\372<\332X\004\275\336\276\232\275\251%\014<\244\347\226=\306\263\200\274\330\273\301=,\372\265=\272ig<_\016m<\\\346\320< \364#\2735\355\254\274\221Sx\275\032\001\271\275\347\220\312\274\274\353z=\304\336\300\274q\253\244\275W\232\243=K\n\270\274\005\243\221=\253\013\214\275\304\235\303\275\322\352\200=V\231\245\275p\2131=\007\253\206=\220\222*\274\264\321\231<)/=\275G\006\317<,\310/<\250nI=R\310\006=l\365\241\275\270\266\035=\301X\263\275h\335\000=V\362\242\275LnY\275C\353m\275n\031\037\275.\273\337\274\263\341\024\275Ane<\377\3741=@!\255:\204\202\256\275\240H\315=\266\2462\275\305\253\331<\010\233\267=yk\232\275\3310S\274\023\315\317=&O\303\275\226u\243\275\311\375V=>\372\267\273\217\364\311<,\036\324\2741l]\275\236[m=\251\n\221=&\237)\274\037\334\265\275n?=\275\204+\265\274\223[\307\275\223h\240\275\326\257\254=i\030\251=\321\253x=L\230\235\275\361\352W<`\372,\275\242\360.\274\010S\232=\333}\310\275\237\207\214\275\303s\016\275v\376\274\275\033\332\300\275\263\347\201\275E6\242=\010\332S=\322\017\212\274\200n\261\275lsi=2i\301\275W\232\263\274\217m\022\275\036\236n=G\350}=\316\232\246\275\376\367\234= j\323\274\316.\305<\037mL=f\211\000\275\351\237\313=\363\366\267\275\036\033\234\275\266\025\316<-\220w\275\251\247\367\2735)\304<\246\313\034\275_-\006;\304L\304\2747\236\321\274\\\312\366<\010En<kc\376\274\310 z\275\037Y\277\274\365\343\314\275H\231\204\275\ny\260\275e\216\301=&9p=y\254\263=l\214u=\322\354\265\275QS\263\275\211\362\032\275\035\230\325\275n3{=R>g=TZi\275\320\267:\275R\2755\275\200\253\273<\3517\211\274\250|#\275\306\031\357<\311\270\002=\177\014\316<\223\375\310<\003\nH\275\237\215\312\274\316\242\233\273<q\021\275\351\251\243\2739\322?=Y\376\255<\217X\225\275\023\305!=\330*[\275\341\341\301=\027o\263=\3012\313<\364\370!\275\026y\236=\347\333\204=\034 \036=\032\253\300=O\361\216=\262L2<\230\034\317\275\341\305i=\270\177&\274\252\2323\275\227\333\005=\220\373\205=\2471X\275\340\376\220=\007\377\210<\366oh=\270\365u=K\317\263;\201o\270={)Y=\205A\203;0\300s=\031\000\222\275.:9=E8\202\274\267\035\370\274n_\315\274J\372\225\275\031+\232=;J_\273\253\r6=$\337\341<\342\'\306\274\270\225\032\275\227@\374\272\212\255\233;\201s\215\275f\222\253\275T\243}<\243rx<\314\034b=\223\031\023=}^u\275\344\373m=jJS\275W4\010=W\n\321;j\323 \275\203\337\230=\336\025\230=\206\022g=\212yo\275\363\366\216=n<\357<\222L\324\274\234\013\260=\2501\372:WX\224=\334&\233\275\346:\327<\340\346\246\275\252\233\220=\247\034\373:@@g;\303An\275\206g\026<\265\375\234;\\\241^\2741\277\227\275\225t\237\275\017\260\272\275\246\267\333=Z\317>\274\2529\273=\324\320\003=Ik\254\275vBT\275ov!<\327\032\237\275\364\275\037\275\221\340\037\275\333W\266=\246\325\177\275\222\325\273<\023L\244\275w\373\016\275P\234\226\274\212\375<=\003\227\305\275\253\233\232=Y\206\207\275p_\325=g\247\317\275\250Lq=\360/\322\273u\365\253<\177\2356\275^\'!=w\360\236=\r\315r=\200\032^=\307^\026\275\024\246\251\275\343\036\252\274\202F\236\275\341><\275\321\273\271\275\242\334\256=\364\303\360<\264_\331\273\311w\200=\030R\245\275\217s7=\226\367\260\275T\276k\2752\247\250\275r\221v=\233(&\275S\032\255<\254\033\266;\007\013\222\274\226\221}\275]&\343\274\244`%\274 41\274d6\212=E$\005<V\224\013=\325\203\034=a\010\236\275\320\225\226=\207\240\262=)\250\010=\261z\026=T\230x=\370\201%<\210\031\314\275\217\255\247\273\313\360\\\275\376\0347=\302\215\260=SB\352\274h\371\247=\232\372\226\275\357\004\373\274\260}o=\230\323E\275\253\353\254\275\034RJ\275\351x\330\274\251\213\241=\211\371\305\275\211\022\203= \330,=\362\200\275=\030\313|<\216\256\236=\201v\005=\032\364\330=\221\005\331<\213\347\322\275B\263\217\275j\225\276=X\340\253=\356\362\264\274\366\2555\275\021\213\321\273\306\336\263\275\002Q\247\275~hx=bP\021\275y\350\205=6I\301\275\314\257\306=\336\320Y\271K(\373<t\274\023\275,[^\274\030R0=2\r\227\274\005D\313\275\272L\026=\207\216\276\275\332\230\251\275_\036?\275|\244\274\272\370~\275=\002\230S\274\374\237\210\275L;\210=\336\021A<\017J\200<6\270\027=\202\277\000=W\230\217\273\375\357x<Y\321\241\275j#\260\275!\263x\274@4\324;9\304\307=s\375\324\274\2040\214\275%q\252=h\027\273\275Lv\313=p#I=\016\324\203\275\035E\261\275{>\256=\246\343\216\275\204\000\021\274\365\317\253=e\014\027=\265W\207=W\273\327\274\273,B=X\034\225\275\230\313K\274\025%\027\275}\311\253\275\254\252\315=^\240\263\275y:\325\275\330?J=\305\304\'=:K\031\275O\2112=\356i\302\2756\314?=\2268\275;\tp\005\274`<\267=2\327\243=\275\323\200\275\377\024\371\272\300Ih\274Z>\314\275\241,\221\274u\316+\2737I\256<\370p\314<\347Z`=\220Ym\275\372\212\253\275\351\022\272\275\316\007L\275o\267\267=\200{\303\275Z\322z\273\303\273\246<7Z-<@\222\232\275I\024\262\275\234\244\244\275_\031\305\275NZ\005\275[\275\263\274Z:\227=\227\313\237=\232\361\031\273\344\2058\273:\300\255=\211\317\263\274P\026E=\240\022c\275#A\026=\317\270E\275\025]\r=k\024>\275o>\003\275Lc\230<O\367\274\275#bm<\320\262\260\275\215\275\217\275\033-\207\275$]\304=2\272\240\275\213\371*\275\204\330\277\274w\035\200=\221Us\275\343\212\026\275r9\300\275\347\'S\275\356\331\265<`\0049=\232\305\257=\241\354z\275L\347r=Q\257z=\313\306\025\275 -\206\274@\\*=\332j\375\274\245\336\302=\032\373y=\3250q\275\250\362H<W\374\263\275:R.=\313\227r=\323\326s\274xx\273\275Sx\274=\341\354\003\275\010\277\246\275\266\n\204=(\311I=\0273\026<\202*\273\275\350\035\314\275JT\271\275\273L$=\212\355\036=\207\337\307\275e,\256=t\013 \275\335U\255<\031T\205=\340\356\376\2724>\225=\360\242\213\274\350T\304=\332\214j=\236\324/=\0258\364\274\210U\252=oy\257=\204yj\275\253lJ\275\306\316\t\275\325Z8\275\203\365I\275\325k\320\274k\216\331<\245|\244=\327\313\303\275\202\202\332<\360\245P=c\'\362\274M\020G\275y\364I\275\020\362\034\270\030C\250=T\353\243=\222VI=\326\031\225=W\360\313<6\224\260\275<h\316<\022\350\311\275\n\236\246\275\025\'\232;\033\r\317\273\371:\273\275\277r\337<9\201\027=\033\025\222\275\305\261\260\274\313@\030\275r\r(<e\2266\275\221\335\271=l\363\017=WTa=\367\203F<S\241\222=\222\341\276\275SCe\275=\375 =R\2244\275\037X\312<0\227\204=\364A\300\274h\335\220\274xR\266\274\002W\344\274\304v\210=\226\356\036<\221\342\023=\325\213\371<\253\264\260=b\216\314\274V\350\257\275\301\262J\275\023 \027=\034$~\275\000J\264\275\313\253\310\274\353H\001\2743\016G=\266\222\302\275m,&\275\204\312k\275\030\264\277=cjC\275td[=\337*\241\275\177\354\207<\275]\327<\236Xq\275\247\235\212\275w\006\247=\000\313\035=c\"\306;\\bO\274\251Q\247\274\264\230c\275\313\221{\274\260\233\363\274\273i\266\273\350\304\220\275\032\275\316\275\"\350\362:\036\214\342<\253 \237\275\340\362A\275,@\205=\215m\244\273\373x\243=\177\251\232:.\340\360\273!\034\243\275G$ ==\264\r=<\2652\274_\267\251=N\031\272\275\320\243\250\275?\215\242\275\272\303J=f\006\356<\302L?\275\233\013\257\275\260\004\207=\036\353\234=!\324\250=\216\017k\275qc\261<\224\335\231\2757z/=Z\005C\274Q\332\225\275\030\\\241=\307.\272;w\373\231\275\216*?\275\010t\r\275\251\376&=!8*\275\010\305\215=.\237-\275G\0255<8;\177=Z\\\260=fo\201\275\253\214\034=fc>=\372\306i=\002l\214=\232G\243\275\313N\245<\374yw\275t\026\210;\246\030%\275Q\026\342<A!\304=F\305\227\275Km\252<`\355\222\275\357\230d\275`\247M=Ua\310=\341\360\360\274_\313\211\275;\0311=\217\247\306\274\023Z\210=\205\224\305\273\365D\271=(\331\360<\004\037\234=\312\321\374<\221\230D=\270\202\240=\252\014\036\275\036\032\256\275Ccg\275@b9=\273]\200\274\345O\021=\234\203\364\274\343I\217<\272r\222\275~\024\227=\024\221\243\275\001\333m=\356\361\206;Q\033\220\275!\022\206=\353\205\203=\323\207p:f\357\265=Ku\273<\014\\Y=\3773}\2747\263N=\265\241\032\275\026\'\261\272\216\341\327=\306\375)<\300r\202\274\253x\362<j?t<(x\024\275b\3579\275@Z\214\275\345l\240\275\361\250\271=: \211\275n\367+\275\002\302m=\367d =\207\353o<;\336\255\273Rn\236=\261\233\374;\212\203\236<\214\337\037\274\265\'\255=\007\032\265<\3330\212\275y\352\325\274\215\321\221\275\016-\031=\251}V=\335\n\232\274\027\022\356<\364#\244;\200(q\275\316\212\034=8\353\316\274\215G\007=\230;\032<\350W\032\274;\'\326\275\341\257\315=\262x\321=\332\274\227<\002}\335\274S\226\004;\250\254\266\275\347\244\253=\363~\327\2740\324\017=!\357\333\274KX\272\274L\300\250\275\237\016\204\275\205]\022\274\006\203<=1PY\273SJ[=\223\022\254\274\177\334\244\275K\365C=^G,=\030\304N<~\n\213<\337d\215\275C&\271\275<\264\006=f\355\037\274Q\307\006\273\037c\222\275fp\210\274\245\016\361:\311\007p\274\217\201\033\275\322\377\324=\004\223\257\275\177JM=9\365\305<\016\215\r=u\035\201=4\263\222=\375\001\327=\310\371\267=\347\227\254\275\277_h=\3715$\275\211\216F\274)\307V=\026\377Y<\006F\302<\230\272,=2\202c\274\020i\230\273a\377v=\350\333\224=[v\017=\035\305\274=\253f\266\274\260\377\230=\323F\230\275\026H\023=\202PR=\240\311\206=am2=\002V-\273@;\\=\272\206\217\275\262~\310<A\252\233=c\266\034=\004&P=3\363\256\275\331\247r<\255\225\274<(\264>\275\217\"9=h\354\275\274\330\340\032\275#\360\005\275o&,=3\307\242\274[.\336<\323\354\231<\245\330\212=0q}\275E\230\370\274\362\225\251<\312\325>\275m1\215<\032U#=\027\277F\274\344\177\255\275\322X\330<\312]-\275h\214\222=0\226C\274lN\202\275`\000\232\2750\273*=a/\221=\357Bo\275\274\353B=E\355\026\275\010\266\223=\247\3052\275\247i`<\000\231\351;\2647\233;\212\236\207\275n\177\261=\343\222O\275$-t=\317\360\360\274nK\260<\335\353-=y\037\270\275\354\366\201\275\330aL=\265\377\364;?7\307=|\346\230==\005\335=\220\346\001=\305N>\275\301\375\200=Y\266\031=\377n\226<\tu\211\275\23551=\327U\306\273\013p\007\275\007\364\214<K\303D\274\254\204\313<\3341d\275#G\213\273\312\350\227=\243\223\314=\255;\226\275\245\306\224\274zt\250=\347gH=u\242d<\324\311\251=\331\260\201\275nC\211\275\224\n@=\202\340\310<\216\026n\275KGf=\202\360\235=01\266<\000\342\236<tpK=\317\212\301=wu\004\274\312\204\201=\\U\302=\315\210\201=\021\356\266\2748/\254\275K\263\210\274\363\226\322\275\036QL=\265\203\010=\353N\302=\207\215\332\274U<\366;wN =s\022\233\275\372\006\305<\317\244\237=b\3601\275\256!\271=Z\212\350\272\'qt<\324\264\232;\256\237\212\275TQD\275\262\276\356<\347}\037=\224 \263\275\270\3679=\033\013\304\274CR*=4_\224=\351TJ=b\351P\275\001\213h\275\207\274\212=\3222w=da\212=\031\325\265\275\221_\263=I\010\267\275\347\305_=7p\375;\246\357+=\217z\304\275\246j\300\274\004\300+=\024\030\235\274\217\252\013\275O\354\225=\244\363\201=ki\201=\227\264\212=\017\305\221\275\301\320\300=\026\355\230=\355+L\275\002[E\274|\327\207<\\\0101=\340\241a\275\214p\256=\202\352?\275a!\301=}d\007=}R\271\275-H\010=I@\250=XK\323\274\202\016\255=$\210\206\274\347\374\2449\304@\305<E\013\307=|6\221\274zQ\226\275\373!\364;\251\344\304\275\323\347\231\275N\210l\275\020`W\275b\3479</\352\255\275\3221\302\275\215\346u=\274\342\330=*\231o=4\004\207;\247\225I\275\303A\213=\356\304-\275\014E\256=\351\252`\275\223#\315\2752\272\026=E)\212\274w\355\270\275\260B\246\274\260e\264=\354\262\202<L\271\222\275\2200\237\275\236\245\031\275\257\276\341;%>\'=c!\355\274!wk\2751M\n=w\262\270;\215\277\013\275Q\343\227\275\342I\367<\255\'\245\272\261\027O\275\350/\371\274\354I\267\274\224P\220=\206\271\211\275Sp\241\274\245\230\221=\364\345\264=\207H\355<\023\204i\273\237\312^=\243\300\270=L4\207\274\2072_=P\023\266=\037\324\202=\366\315o\2741\213\220=[3\210\275\343\215F\274\363\320\241=\304=y<\230\347\371<\255f\036=~\014\032=\313\031$=\373fx=\201\257\270=W\203{=\007s\345\274rT4\275\177\233\177=\233l\276\274\260P\010=\224?\302=\270\223\273=\217\366\311\275W\014\013=\370yR\275\307\247@\275\3543\273=\037\rS=\272\345\016=\303\207\254\275QTW\275\247\n}\275\363\027Y\275\200\010\303\274\234\033\253\275c~\264=\'\177\265;\337Q\255\275j\023\276\275\231Y\230\275C^\302\275\362?\263\273C\314\302\274\377\302\234\274\0069O=Zd\314\274\351\315\020=\310\314m=7\374\305=\2559c\2749\260\226\275\317\372\001=\362\013>\274\355\353\230\274J\245]\274\326\236\026\275W2\213\275\274\230\362\274\177\304\276\275\003\360\371\273\335\272\000=\200\377\230\275H]\215\275\331\243v\275\3326/\275j\246^\275\'@\\\275\266\242\253\273p\313\243=E\356\254\2758\310<=\353\275\204=\247<\022\272.6\303\275b\362\037\272\245\302\220<\222\355$\275[\034\244=\220\266*=\377\013\235\275J\300Z\275\223rW\275}\022\301=\034\250\253\273S\314.=\331\273\261\275\332fz=\376\2437=\263Q\231=\214\250\315\275\212L\304\274\255\300\210=Rd\314=d\224\226\273z\026\207\273\235s&=\344$p\275R\265H<\220\350\203;:\347{=\n6W<\336\206B\274\006S\265=\377Y\255=\246\021\246<\322Sg=\037)y\275\003\312\021\274\316\367U\275y\201H\2758\277\253\275\340\227\274\275\311\013\276\274\235\342\253\274\036\370\225=\277a*\275T\252a\275ci\010\2754\245\251=\1774\252\275\321\223G<p\2608\274\033-\223=\251\204\250\275\201Q\274<)l\243=]\235\224\275\t\235T=\034\275\217=G\344^=\216La=\267\341\263=\327\226\200=~\247%=\322\223P\275G\035\200={\330\004=w\234\232=\276\010\265<r^z=\223\'\244<\366\007D=\274\264\215=vs\314<.\337\304<\364,\234<\340L<=c\341\267\275\251G\240<K\200v\275\\\255)=\251\037\274\274\377P\235\273\314\313@=\247o\271\275\004\333\227=\223O*\275lPU\275y\267\020\2751\337\261\275\326;\224=\256b\312\275\341\235\207=\251\306q=\266=;=\262jz=\367Z\021\275knX=a}S=\322\261\201;\342]\304\275l\205 \275\221\330l\275\322?Z\274\n\244\225\275\336.(=w\"\251\274R\303\214\275\",\203<\325n\\\275\352\317\203\275\'%\326\275\002q\331\275S\363\313\274\031\032\222\275Xc\236\2748k\030\275:\033\334<\227\257\224<\361R3=\274r^<o\352\350\273\261\355\204\275*F\200\275\016\006Z=\200\255\302\274\255\304\030\275\275\305q=\036\200\203:\330rb=\271)Z<P\255@=\n\332\221\275\212SK;\342\244\255=\361\025\224<\314\310\371;\367\311\200;\240\222\231\275\224V\240\274\314\303\220\273\016\234\201<Ql\302=%\341\014=\331p\251\275H|\206<jb\262=CJm\275r\342\254=o-\202=\014\271\177=\252\233\006<\253\354\t\275\2730\255\274M\242\207\275\263d\022\274O3N\275=\027\301=\033\n\250\275i\255i=\031\346\202\275\351\233A=h\312\252=\315\330\255\275\024mO\275\352\250\260=\007\255X\274+f0\275\200\r\255=`\340\"=b\377\177=/I\213\275e4\211\275\r35\275\374\"\337\273_<a\273\252\000\273=|\200\222=\010\305\252\275c\'\253=\2436\222\275\225?R=u\304\223\275z\006\304\275\200\206\016=\304\340\331<\005\267~=\232[\206\275\215\335\270\275\024v\"\274w\342\365\274r\221\242=\177Kt=^\321\241<Ut\375;V\256r=^o\301\275\230\014\317<@\317\321=> \207\275b\212\230\274(\361\304<*\323I\275\026l/=\234d>=b[\275\274%\341\020=(\345\014\275\376\211\'=2\370\221\275\010\3005=s\n%=\220\247\251=\310k\221\275Jd\\=s\351\256\275\303\216\225\275\305\240\210\274Yw\265=\374\342X=o\327,=b\360\337<\315\270\032\275D\307\351\274\216\362\214\275T\202\241\275\007\247v<\300^#\275W$\243=*]\230=\006\270\244\275\031,f\275`8\326<\335l\003<5\333T\275r\236\025\274q\202u<r#\273<\355\3467\275\356)5=M\276\246=(b\315=\236ns\275\264~9=\010E\"=\366\2641=\312\205\002<a%\037=\320\317\200=\234\234\304\275\350)\275=\212\321\025=\341\306\215<\010\343Q=\264\347\224=\013\246\275<\305U\315={\275\341<\300\225\314\275\253\201$=\330,\263<\014\333r\275A>\235=\217\332\220\275l\267x\275Q\002\276=`\210\231<\206\n\305=<a\220\275*\2614=>\3009=\226\233\227=\365$\255\274D\307\265=\214\256\226\273\'m^\275\027\323\233=w\361\222\275\300qW=|\333\2359\263=@=\237\352r=\270\274L\275/_\302\275sg\246=\241\342\306<Bq\231\274\324M\276\275Z\221\260\275K\244@\275\237Z\262\275\204\321C=U\316\305\274<\372\274\275_\205\377\2749\002\017=w\307\022=\350\252k\275\371\n\220=\325\222\206\275.\030K\275X\235\273=\244\021\240<\242\031\254\275\244~\301\275\321(\237\274\3131\344;\364|\366;a\211\275=p-3=\203?`<R\344\236=\232|w\275\204:\331=\233ij=\310\266\255\275\005\246\324\274)\315\276=\t\330\302<\217x\212\275\332\250\227=J\"\023<\346X\211\274\213\277\266=\236\254\254=\020A<\274 \3304=\032\333\227\275\225K\025\275r\006\236<Uf\314\275\246\274\212=M\321\307=\374\226\023\275\325\372\255;\2577\362\273\265m\222\274\\\202\242=&;\273\275\314\n\353\274\230\334C\275\215\315\014<u>\232<\030]c=\237\312\234=%\025\263\275\023\010\034\2750(\337<\tQ\"=\177\2428\275\312\020\231\274r$\034\274\256\t\217<\237\273\333\274a\246\272=\253W\244\275IQ\022\275\t}\372\274\0248\360<l\234\230\275\242/\271=*\313\254=\320\244\023\275\013\340\177=v\234\321=R\364\255=\334Qz\274 \223_=\242\365q\275\002_\350<\311\022*\275`\010\254\274H\327\273\275\211r\226<dS\001=U\273\027<\216\263\202=dJ\221<\327\250\250=\240I}\275}\316):\305Fr\275\214R\256\274\351\266\273=\365G\247\274\327>\332\275<\tr=\305\345W<\205\366n\275\r\303\232=0lf\275\355.\223=u\305\230=m\214\374\274\214\252\313<\003i\022=7\2202=F\010\342<\356>\266\275wi\177=\030\265\257=\202\325]\275\233\335F\275H\252x\274\3069\232=\332\212\211\275\244\347\321\275\n\243\375\273\247\230\255\275\0144\363\274\006d8=\002\315\212=\350E%\273\304=\305\275\357\277\243\275;S\002\275\003(X=X\027\271\275\313\3421<6#\024=\230\376\230\275Rk\221=\224<\226<\2321\254\275\004\207\305\2747\241\237=\220\365\025=\265\334\264<\r<\020\275z\243\333\274V\030\344\273\347\275\311=\021\325n\275\210\247_<\177\320\211\275\330\276\321<\357\305\257=\272D\237\275\262\001\310\275|\227\341<\3769&=\227\222\215\274\213\223\325\272\255\033\240\275\370\344\272\274\364\2531<D12;\246\222\237=.\345\277\275.\275\223=\3662\021\274r\265\326\275\332\252\345<xH\216=|\264\016\274\324\001\243\275wY\221\275\003\312\257\275\020\263s\275\267\006\231=bRZ\274\370,j=tQ\306\2743T\310=\320\205\200=\317+\252=\322\332z=\347\357\212\275\304\260l\275qa\210=qn\354\274\021\241\225\275\220\320\267=;*\324\274\rGT=\005\207T<]y\263=S\230\356\274\265q\345<\177\217\210\275Z\271\217=3p\346\274?x\200\275a\220\226=\302!\245<\013\373\225=\341\330j=mx\273=\350\264U\275\304~\272\275H\n\257<z\006\026=<\177\240\273\206\312\273=*\237\262\275P\250\000\275\215\274\264\273\343\253\320=\034\261\016\274y\213\250;\n\336%:\335\014:<f\264\321\275M\350t\274\307Z\207\275)\014\224=\216\304J\275(\257\314\270\007\263\233\275\351jr\275T\374\223=x\310\246=H\212\226\275S-\013<R\016\300\275\317\005\304=\376u\301\273;\004\002<\016\037\211=<\225\223\274o\301\316=\2067\021\275\336\352\023=|\223:=\354\"\252\275\235\346Y<\001\014\307\275\310\363\027:cR\010\275\235\354\225\275\345\350\252\274G9\246<\376\251\210\275\030|G<\361\026\371\274\016\245\241\275\313\301!\274g\223\262=\336\206\252\271\014\027\023\275\356\254\322\275\2277\310\275\025K\261\275\372?\017=fl\252<O\0216=\231y-<\254\222\235\274\036_\262\275Q\000m\274\200\2646\2753_@=p<\242<\205\325\024<,\306\224\275\300\262\213\275\247\214\310=\324\307\266;\346\351\030<>\2413\274\241\252g=V#\006;\266\237\007\275\206q(\275\215\346\267\274\325Z(=r\207\246=\263\337\002=hRj=\337&r=\232(\026\275\227Y\211=P\363\213\275y\347\331\275\006\307\235\275\033\222\363;\210\323\247<\0025W\274\265\301-=]6\241=,\352Y\275\311u\323\274\340\345\010\275\322)\306=<\237\313=\3549r=\374\216Y\275\231T\216\275e\022\324\274\202,\263=n\245\206<1\351\225\275\277ZF=\222\353\250\274\r\030\032<\037a^\272/\036\301\275\263\014\307\275&\337\262<\227S\264\274\002\2316\275\033\361d<\255&\016\275wh\227\275\r\331\214\274g\007\233\275Qo\325\274\226\373\033\273\017\263\235=C\303\243=\024j\206\275\035\2667:\024Y4\275\373/\023\275/\237\206=\372f\005=/\223\207<\324\344\253\275#\345E\274\226\331^<x;\352;=1\212\275Y5\023\275\224;\301=\\\030q;\223T\257\275~K\205=\232\277K\274\025\027\251=\231g\263\275P\372|\274Z\\\301<\217\337\265\275\216R6\275R\313\243=\1771S\275\3507\307:\245\221{=\232\332\221\275\255-\370\274\346[\227=\264\243\006=t\236\251=\201\004\031\275\210o\330\274\006\374\236=v\261\232<wa\253\275\353\337?\275l\014\253\274\010\255\267:\254\363\204<\034\031\243\275N\304\207=\315\2322\275x=\265\275\326Y\206=\340\301\247<\324\002\201\275\014\177\017<A\265r\275\353L\226=DaB\275\206\366\307\274\004\313\241=C\030]\274\036Dm=\2052M=1\210p\275\225\224q=\377:\215=\321\032\222=#\357\014=)\351]\274\236\023\366\274=\244\021<`\350\252\275\265\212\306=\320\217\017=\3307)\274\3720\210=\317\312\307=48e<(\264\321\274`\203\237<?\227p=>\237\214\273\006\274\342\273o\237C\275\223\r@=\2648\305=\314^\214;\344V\220\275\004\311\272\275\350\340\233\275\265B_=\212\246\215=\335h\251=\\\035\355:{bQ=\271\207\271\2756\354\022\275\232}\250\275\201(\210\275\230\315$\275\364\341\246\275\006\214\236\275\3052B=\371p\303=\322[\357\274\252\207e=\333\370\217\275[\335\237\2731y\342\274\020\203\000\2752+\247\274\3509\254\275\032H\314\273\256._=\317\365M=\001\001\244\275\215@\230\275nn#=\242\334E\275\2220\217=\200\350\313=K<\224\274\3039r\274$M\231\275\234\214\267=<\023\331\275\223\031\307\275\214\245\252\274\324c\232=W\321\017\275\372\004\022\275N\030w\275ojI\27513\360\274m\362\247\273\223]\327\275\205\223\314\274\207\"\251\275\333\217Y\275n\250\265\275\274\253\317\275\256$\262=\275|\341<{7\212=M\347\'=\2253\240\275H\220\276=\204c\304\275\3703\017\275\241\004\242\274K\206\337<\036_e=\346\262\027=T\377\303\275\207\033\323<_f\321;{\220\231=\331\330\250<\274Q\267=2\275\032\275a\223\247=f\3264\274\355d\327=\311\347w\275\\\353\213=\\I\024\274\211\365\335\274\262\252(=m\201\233\275k\312&\2755&\213=zI\013\275\244\237\261=>\311\330\2744a\0269\371\022Q\273Z\031\215=\245\026Y\275m\230\221\275\237\207;\275\032\013\237\275\262\327\321=\336\013\203=\242\321[=\214\026\337\275`\033K\275\023\3649\275\237\247\270\275K~\271\275\260\370\266<\202|\207\275\233}\213=0u\305<\031\303\244\275V\376\000=\215\027\307\275)u\357<\262]F\273$\214_\275o\325A\275\305#\264<\212\350\337<\254\325\274=n\356\247\275Up\254=|X.\275\330\331 ;D;\214\275\036[\271=`\275p\275O\257Y=o\030\023\275H\364n\275V\211\214=\3570\223=P\366\274<\322 \001=i\006\271\275\004\312\247=\235\235\251=\327\251c<\201_\232=\275\"5\275%\270\262<cWq=\231oV\275\035h\300\275\222%L=\205\"W\275-|\334<\036\275Q\273\002\316\326\275\n\275\263\275\214\"\205\275\272\335n=q\227\177=Z\006M=,t\261<\271\267\256\275}\207r=\r>\316\275_o\250\275\345\014\223=\334\262\246\275n\311)\275\336\340@<\270a\271\275X\337J9\306@\235\275\233KF<\236\t\214<pi\214\274\027^\007<U\354\264\275\305\3562=\177\345\030<\300\016\230\275-u\r\274r\364\221\275\266l*\274\317\266\202\275+\210\001\275\t\276\202\275\361\270\220\275\312_\224=s\3564=\034\334\362<\t\235\002\275\367\210\305\275\223T\'\275\007xP\275\236x;=ha\237\275\322\357\317:\320Y`\274\256}x\275\333\327%=\346Qi;\352-\326\274\267\310\206;\333B\247\275;\213\031\275t2\213\271\000Em=\244\212\251\274\250\322\322\274!\\L\275D\377\217\275\205\346\225\275\036\332\302\274\253\263B\275\214\244B=+\335\324=\t\021\344\274\261]\r\275\323\375\322=\360\334V=\300\220\251\275@\236\217=\347\021\224=\376\3569=oC\301\275\341\334\263\275\204\260\207\275J\021\262;\272>\332<\026B\216<\2447S\275\340U\336:\370PY=\321\302\314=\201\320\271\275\260\3159\275c\343\346\273\006e]=J\317C=\014<\030=U\333C\275g\274\204\275j\">;t\035\334\273\261\227\201\273\3100\232\275j\256a\274\240w\237=\362&\t=\257\301\352\274\006k)\275\212\364\031\274\255\352\r\274;\036S;r\213\272\275\227\030c=6%\201=\277\333\013=k\024&=}h\253\274\240\010,=\357\006\236\275\226q\331\274\351\345\273=\241\212\233\275\020\361\265={+\267=\035\330\372\273P\005\261=$\001\215\275Z\205\204;\210`W\275#\014\032\275d\360\363\274x\261\262=\216\364\220\275\356\016\n=\335\322\267=\331\212\364\274\356\013\221\275\364\274\270\274\354\0035\275S\036y=\006\177\210\2744\377A=\353\021\237\275\247<\004=\224L`9\357z\000=Y\236\025\274X~\271\275]\234\242\274>\024\006=\216\245$=\246i\275\274\031\356+\275\220\213\003\275\233GF\273\r\224\001<\316\005\207=\30170=\"Xa=\373\211\324=\224\014\027<\242\277\212\275\030\017\027;#\241\341\274z@(\275\236ed\275\336%\001\274\352@\212\275\355\217\252\275J\233a\275\264\204\207<\264\373\210=\215\250\003\275\324\3653=\323\245\202\275\345\340M\274\033Q\245<up\250<\225H==o\315\360;\204\037\245\275Ft\277\275\256\262\225\275\r\225!=\330q\302<\"M\266\275\237\272F\275\035\220(=]z\346\274\001\271\027\275L%\263\275\320\205\222=\301\207\037=o\366v\275\314\315G=\361~U\2752\023\244=\305B\213:xVa=WX\005\275O]\304=e/\312=\352\340\252\275\364Z\335\274L\206_:\215\376x<>\252\264\275!\332\301\274Rfj=dG\266\275>f\214=\340\373\263=\240C\356\274\312\001\334<!B\200=) R\274\252F\264=\212\341\311\274\024\237\226=x\233\267=\3325\002\275\323K\261=\211\310`\275\335Y|\275,\030\214\2754\364z<\316\037\217=zE\323\275,